{
  "version": "1.0",
  "truncation": null,
  "padding": null,
  "added_tokens": [
    {
      "id": 0,
      "content": "[PAD]",
      "single_word": false,
      "lstrip": false,
      "rstrip": false,
      "normalized": false,
      "special": true
    },
    {
      "id": 1,
      "content": "[UNK]",
      "single_word": false,
      "lstrip": false,
      "rstrip": false,
      "normalized": false,
      "special": true
    },
    {
      "id": 2,
      "content": "[CLS]",
      "single_word": false,
      "lstrip": false,
      "rstrip": false,
      "normalized": false,
      "special": true
    },
    {
      "id": 3,
      "content": "[SEP]",
      "single_word": false,
      "lstrip": false,
      "rstrip": false,
      "normalized": false,
      "special": true
    },
    {
      "id": 4,
      "content": "[MASK]",
      "single_word": false,
      "lstrip": false,
      "rstrip": false,
      "normalized": false,
      "special": true
    },
    {
      "id": 5,
      "content": "[BOS]",
      "single_word": false,
      "lstrip": false,
      "rstrip": false,
      "normalized": false,
      "special": true
    },
    {
      "id": 6,
      "content": "[EOS]",
      "single_word": false,
      "lstrip": false,
      "rstrip": false,
      "normalized": false,
      "special": true
    }
  ],
  "normalizer": {
    "type": "BertNormalizer",
    "clean_text": true,
    "handle_chinese_chars": true,
    "strip_accents": true,
    "lowercase": true
  },
  "pre_tokenizer": {
    "type": "BertPreTokenizer"
  },
  "post_processor": null,
  "decoder": {
    "type": "WordPiece",
    "prefix": "##",
    "cleanup": true
  },
  "model": {
    "type": "WordPiece",
    "unk_token": "[UNK]",
    "continuing_subword_prefix": "##",
    "max_input_chars_per_word": 100,
    "vocab": {
      "[PAD]": 0,
      "[UNK]": 1,
      "[CLS]": 2,
      "[SEP]": 3,
      "[MASK]": 4,
      "[BOS]": 5,
      "[EOS]": 6,
      "%": 7,
      "'": 8,
      "+": 9,
      ",": 10,
      ".": 11,
      "/": 12,
      "0": 13,
      "1": 14,
      "2": 15,
      "3": 16,
      "4": 17,
      "5": 18,
      "6": 19,
      "7": 20,
      "8": 21,
      "9": 22,
      "?": 23,
      "[": 24,
      "]": 25,
      "`": 26,
      "a": 27,
      "b": 28,
      "c": 29,
      "d": 30,
      "e": 31,
      "f": 32,
      "g": 33,
      "h": 34,
      "i": 35,
      "j": 36,
      "k": 37,
      "l": 38,
      "m": 39,
      "n": 40,
      "o": 41,
      "p": 42,
      "q": 43,
      "r": 44,
      "s": 45,
      "t": 46,
      "u": 47,
      "v": 48,
      "w": 49,
      "x": 50,
      "y": 51,
      "z": 52,
      "ᄀ": 53,
      "ᄁ": 54,
      "ᄂ": 55,
      "ᄃ": 56,
      "ᄄ": 57,
      "ᄅ": 58,
      "ᄆ": 59,
      "ᄇ": 60,
      "ᄈ": 61,
      "ᄉ": 62,
      "ᄊ": 63,
      "ᄋ": 64,
      "ᄌ": 65,
      "ᄍ": 66,
      "ᄎ": 67,
      "ᄏ": 68,
      "ᄐ": 69,
      "ᄑ": 70,
      "ᄒ": 71,
      "ᅡ": 72,
      "ᅢ": 73,
      "ᅣ": 74,
      "ᅤ": 75,
      "ᅥ": 76,
      "ᅦ": 77,
      "ᅧ": 78,
      "ᅨ": 79,
      "ᅩ": 80,
      "ᅪ": 81,
      "ᅫ": 82,
      "ᅬ": 83,
      "ᅭ": 84,
      "ᅮ": 85,
      "ᅯ": 86,
      "ᅰ": 87,
      "ᅱ": 88,
      "ᅲ": 89,
      "ᅳ": 90,
      "ᅴ": 91,
      "ᅵ": 92,
      "ᆨ": 93,
      "ᆩ": 94,
      "ᆪ": 95,
      "ᆫ": 96,
      "ᆬ": 97,
      "ᆭ": 98,
      "ᆮ": 99,
      "ᆯ": 100,
      "ᆰ": 101,
      "ᆱ": 102,
      "ᆲ": 103,
      "ᆴ": 104,
      "ᆶ": 105,
      "ᆷ": 106,
      "ᆸ": 107,
      "ᆹ": 108,
      "ᆺ": 109,
      "ᆻ": 110,
      "ᆼ": 111,
      "ᆽ": 112,
      "ᆾ": 113,
      "ᆿ": 114,
      "ᇀ": 115,
      "ᇁ": 116,
      "ᇂ": 117,
      "…": 118,
      "℃": 119,
      "○": 120,
      "ㅇ": 121,
      "ㅍ": 122,
      "ㅜ": 123,
      "ㅣ": 124,
      "㎡": 125,
      "##ᅮ": 126,
      "##ᄎ": 127,
      "##ᅡ": 128,
      "##ᄒ": 129,
      "##ᄉ": 130,
      "##ᅵ": 131,
      "##ᄆ": 132,
      "##ᅧ": 133,
      "##ᆫ": 134,
      "##ᅢ": 135,
      "##ᆼ": 136,
      "##ᄋ": 137,
      "##ᅦ": 138,
      "##ᄇ": 139,
      "##ᅩ": 140,
      "##ᄅ": 141,
      "##ᄀ": 142,
      "##ᇀ": 143,
      "##ᅭ": 144,
      "##ᄃ": 145,
      "##ᅳ": 146,
      "##ᄂ": 147,
      "##ᅪ": 148,
      "##ᄌ": 149,
      "##ᅥ": 150,
      "##ᇂ": 151,
      "##ᆸ": 152,
      "##ᆯ": 153,
      "##ᄁ": 154,
      "##ᅴ": 155,
      "##ᅯ": 156,
      "##ᄐ": 157,
      "##ᅬ": 158,
      "##ᆨ": 159,
      "##0": 160,
      "##ᆷ": 161,
      "##ᅨ": 162,
      "##ᄈ": 163,
      "##ᆻ": 164,
      "##ᄏ": 165,
      "##8": 166,
      "##ᅱ": 167,
      "##ᅣ": 168,
      "##ᅰ": 169,
      "##ᆩ": 170,
      "##ᆶ": 171,
      "##ᆺ": 172,
      "##ᅫ": 173,
      "##ᄑ": 174,
      "##6": 175,
      "##ᆭ": 176,
      "##i": 177,
      "##c": 178,
      "##u": 179,
      "##ᅲ": 180,
      "##ᄄ": 181,
      "##ᄍ": 182,
      "##ᆮ": 183,
      "##5": 184,
      "##ᆽ": 185,
      "##ᇁ": 186,
      "##m": 187,
      "##x": 188,
      "##s": 189,
      "##ᅤ": 190,
      "##ᆹ": 191,
      "##4": 192,
      "##3": 193,
      "##ᄊ": 194,
      "##1": 195,
      "##g": 196,
      "##7": 197,
      "##9": 198,
      "##l": 199,
      "##2": 200,
      "##ᆰ": 201,
      "##ᆬ": 202,
      "##ᆾ": 203,
      "##p": 204,
      "##j": 205,
      "##t": 206,
      "##k": 207,
      "##b": 208,
      "##ᆲ": 209,
      "##v": 210,
      "##n": 211,
      "##r": 212,
      "##a": 213,
      "##y": 214,
      "##d": 215,
      "##h": 216,
      "##ᆿ": 217,
      "##ᆱ": 218,
      "##f": 219,
      "##e": 220,
      "##℃": 221,
      "##o": 222,
      "##㎡": 223,
      "##z": 224,
      "##ᆴ": 225,
      "##q": 226,
      "##w": 227,
      "##ᆪ": 228,
      "##ㅇ": 229,
      "##○": 230,
      "##ᅥᆼ": 231,
      "##이": 232,
      "##ᅳᆫ": 233,
      "se": 234,
      "sep": 235,
      "##다": 236,
      "##요": 237,
      "##니": 238,
      "##보": 239,
      "정": 240,
      "이": 241,
      "##ᆸ니": 242,
      "정보": 243,
      "##ᆸ니다": 244,
      "##하": 245,
      "##시": 246,
      "##ᅥᆸ": 247,
      "##인": 248,
      "##ᅳᆯ": 249,
      "##ᅡᆫ": 250,
      "##ᅥᆫ": 251,
      "##ᅧᆫ": 252,
      "##는": 253,
      "##스": 254,
      "##해": 255,
      "##ᅳᄅ": 256,
      "주": 257,
      "##ᅪᆨ": 258,
      "##ᅪᆨ인": 259,
      "##에": 260,
      "##수": 261,
      "##습니다": 262,
      "##ᅡᆼ": 263,
      "가": 264,
      "있": 265,
      "##가": 266,
      "##확인": 267,
      "정보확인": 268,
      "##ᅥᆸ수": 269,
      "##고": 270,
      "##ᅡᆯ": 271,
      "##게": 272,
      "##서": 273,
      "##청": 274,
      "##ᅮᆫ": 275,
      "##접수": 276,
      "지": 277,
      "정보접수": 278,
      "##어": 279,
      "요": 280,
      "##을": 281,
      "##ᅡ요": 282,
      "요청": 283,
      "##면": 284,
      "##ᅳᆼ": 285,
      "##은": 286,
      "##ᅡᆨ": 287,
      "##ᅢᆨ": 288,
      "##ᅩᆨ": 289,
      "##ᅡᄅ": 290,
      "시": 291,
      "##ᅩᆼ": 292,
      "##기": 293,
      "##ᆻ습니다": 294,
      "##데": 295,
      "##ᅡᆷ": 296,
      "##지": 297,
      "##ᅳ리": 298,
      "어": 299,
      "##ᅡᄋ": 300,
      "##ᅳᆷ": 301,
      "접": 302,
      "##근": 303,
      "수": 304,
      "접근": 305,
      "##ᅧᆼ": 306,
      "##주": 307,
      "##ᅮᆯ": 308,
      "##ᅣᆨ": 309,
      "안": 310,
      "##ᅦ요": 311,
      "##문": 312,
      "##ᅮᆷ": 313,
      "##겠습니다": 314,
      "##도": 315,
      "##ᅯᆫ": 316,
      "##나요": 317,
      "되": 318,
      "저": 319,
      "##를": 320,
      "거": 321,
      "##리": 322,
      "##로": 323,
      "주시": 324,
      "##장": 325,
      "##드리": 326,
      "제": 327,
      "안ᄂ": 328,
      "##되": 329,
      "##ᅳ로": 330,
      "아": 331,
      "##는데": 332,
      "##색": 333,
      "하": 334,
      "오": 335,
      "질": 336,
      "##세요": 337,
      "질문": 338,
      "##합니다": 339,
      "##려": 340,
      "##행": 341,
      "여": 342,
      "##품": 343,
      "##하시": 344,
      "##한": 345,
      "예": 346,
      "##능": 347,
      "해": 348,
      "##사": 349,
      "있습니다": 350,
      "서": 351,
      "##와": 352,
      "보": 353,
      "##으로": 354,
      "##ᅡᆷ색": 355,
      "가능": 356,
      "조": 357,
      "정보ᄐ": 358,
      "정보탐색": 359,
      "신": 360,
      "##원": 361,
      "##ᅧᆯ": 362,
      "##거": 363,
      "고": 364,
      "피": 365,
      "마": 366,
      "도": 367,
      "##에서": 368,
      "##약": 369,
      "약": 370,
      "##의": 371,
      "구": 372,
      "예약": 373,
      "##제": 374,
      "동": 375,
      "##실": 376,
      "##용": 377,
      "안내": 378,
      "##ᅡ악": 379,
      "##변": 380,
      "기": 381,
      "##ᅪᆫ": 382,
      "주변": 383,
      "##트": 384,
      "##어요": 385,
      "##성": 386,
      "##파악": 387,
      "주변파악": 388,
      "할": 389,
      "##매": 390,
      "##일": 391,
      "##반": 392,
      "전": 393,
      "##료": 394,
      "##까요": 395,
      "진": 396,
      "##입니다": 397,
      "##ᅵᆼ": 398,
      "##금": 399,
      "##드리겠습니다": 400,
      "##만": 401,
      "동반": 402,
      "##님": 403,
      "##아": 404,
      "상": 405,
      "##나": 406,
      "말": 407,
      "##주행": 408,
      "동반주행": 409,
      "도와": 410,
      "##오": 411,
      "결": 412,
      "##ᅦᆫ": 413,
      "##구": 414,
      "##전": 415,
      "대": 416,
      "드리": 417,
      "사": 418,
      "입": 419,
      "확인": 420,
      "##야": 421,
      "##정": 422,
      "##디": 423,
      "##속": 424,
      "인": 425,
      "##비": 426,
      "##여": 427,
      "##객": 428,
      "##ᆻ는데": 429,
      "##할": 430,
      "물": 431,
      "##드": 432,
      "여기": 433,
      "고객": 434,
      "바ᄅ": 435,
      "##달": 436,
      "없": 437,
      "부": 438,
      "이ᄇ": 439,
      "##건": 440,
      "감": 441,
      "##으": 442,
      "네": 443,
      "약속": 444,
      "중": 445,
      "매": 446,
      "##라": 447,
      "다": 448,
      "고객님": 449,
      "결제": 450,
      "##송": 451,
      "있는": 452,
      "할인": 453,
      "있나요": 454,
      "한": 455,
      "어디": 456,
      "구매": 457,
      "##씀": 458,
      "말씀": 459,
      "##까": 460,
      "##ᅡᆮ": 461,
      "##네요": 462,
      "##시면": 463,
      "##죠": 464,
      "현": 465,
      "신청": 466,
      "이벤": 467,
      "##표": 468,
      "도와드리겠습니다": 469,
      "모": 470,
      "그ᄅ": 471,
      "##터": 472,
      "##자": 473,
      "세": 474,
      "좀": 475,
      "##팅": 476,
      "물건": 477,
      "##호": 478,
      "##셔": 479,
      "##류": 480,
      "##상": 481,
      "상품": 482,
      "##ᆸ시": 483,
      "같": 484,
      "피팅": 485,
      "##하고": 486,
      "##ᅥᆷ": 487,
      "혹": 488,
      "##치": 489,
      "##전달": 490,
      "물건전달": 491,
      "##ᅳᆸ": 492,
      "재": 493,
      "##과": 494,
      "##가요": 495,
      "##ᆸ시오": 496,
      "매장": 497,
      "이벤트": 498,
      "##게요": 499,
      "##부": 500,
      "##ᅧᆼ하": 501,
      "혹시": 502,
      "##재": 503,
      "추": 504,
      "됩니다": 505,
      "알": 506,
      "##ᆻ어요": 507,
      "따ᄅ": 508,
      "##당": 509,
      "##은데": 510,
      "건": 511,
      "##ᅡ리": 512,
      "드리겠습니다": 513,
      "##급": 514,
      "##러": 515,
      "##증": 516,
      "맞": 517,
      "##선": 518,
      "번": 519,
      "##ᅧᆼ하세요": 520,
      "안녕하세요": 521,
      "##림": 522,
      "##되어": 523,
      "발": 524,
      "##ᅦ이": 525,
      "주세요": 526,
      "##ᅵᆫ": 527,
      "제가": 528,
      "##분": 529,
      "##룸": 530,
      "##간": 531,
      "주시면": 532,
      "##차": 533,
      "와": 534,
      "##록": 535,
      "피팅룸": 536,
      "##거림": 537,
      "서성": 538,
      "서성거림": 539,
      "##물": 540,
      "말씀해": 541,
      "위": 542,
      "후": 543,
      "작": 544,
      "제품": 545,
      "싶": 546,
      "가능합니다": 547,
      "##번": 548,
      "##을까요": 549,
      "##ᅩᆫ": 550,
      "자리": 551,
      "현재": 552,
      "들": 553,
      "##ᆺ이": 554,
      "##락": 555,
      "##무": 556,
      "##이ᄌ": 557,
      "이용": 558,
      "##ᅣᆼ": 559,
      "##층": 560,
      "바라": 561,
      "##탁": 562,
      "적": 563,
      "내": 564,
      "바랍니다": 565,
      "받": 566,
      "카": 567,
      "필": 568,
      "부탁": 569,
      "##대": 570,
      "것": 571,
      "##쪽": 572,
      "##드립니다": 573,
      "##00": 574,
      "수선": 575,
      "##저": 576,
      "원": 577,
      "번호": 578,
      "어ᄄ": 579,
      "안내해": 580,
      "되나요": 581,
      "죄": 582,
      "죄송": 583,
      "##ᅢᆼ": 584,
      "진료": 585,
      "무": 586,
      "관": 587,
      "인사": 588,
      "필요": 589,
      "있을까요": 590,
      "접수": 591,
      "대기": 592,
      "##들": 593,
      "##희": 594,
      "들어": 595,
      "차": 596,
      "저희": 597,
      "##우": 598,
      "진행": 599,
      "주십시오": 600,
      "수락": 601,
      "티": 602,
      "##현": 603,
      "지금": 604,
      "##신": 605,
      "발급": 606,
      "기다": 607,
      "재고": 608,
      "사이ᄌ": 609,
      "감정": 610,
      "경": 611,
      "##져": 612,
      "##표현": 613,
      "주문": 614,
      "감정표현": 615,
      "##국": 616,
      "전시": 617,
      "##까지": 618,
      "##ᅦᆺ": 619,
      "이거": 620,
      "##회": 621,
      "해당": 622,
      "감사": 623,
      "로": 624,
      "##하시면": 625,
      "##하신": 626,
      "주시기": 627,
      "잠": 628,
      "배": 629,
      "##소": 630,
      "다시": 631,
      "##하는": 632,
      "너": 633,
      "##던": 634,
      "##려주": 635,
      "개": 636,
      "##명": 637,
      "세일": 638,
      "많": 639,
      "분": 640,
      "두": 641,
      "##하지": 642,
      "않": 643,
      "##천": 644,
      "##00원": 645,
      "준": 646,
      "싶은데": 647,
      "문": 648,
      "옷": 649,
      "작성": 650,
      "##화": 651,
      "영": 652,
      "##ᇂ게": 653,
      "바로": 654,
      "관ᄅ": 655,
      "그": 656,
      "신청서": 657,
      "방": 658,
      "계": 659,
      "##하면": 660,
      "##다고": 661,
      "서류": 662,
      "다ᄅ": 663,
      "미": 664,
      "일": 665,
      "메": 666,
      "##관": 667,
      "주차": 668,
      "비": 669,
      "찾": 670,
      "##됩니다": 671,
      "소": 672,
      "경우": 673,
      "등": 674,
      "나": 675,
      "##ᅡ와": 676,
      "부탁드립니다": 677,
      "##식": 678,
      "로보": 679,
      "사이즈": 680,
      "감사합니다": 681,
      "##ᅳ를": 682,
      "##ᅥᆯ": 683,
      "티ᄏ": 684,
      "000원": 685,
      "##래": 686,
      "##ᅡ음": 687,
      "있어요": 688,
      "##겨": 689,
      "##ᆯ까요": 690,
      "더": 691,
      "##비스": 692,
      "불": 693,
      "추천": 694,
      "처": 695,
      "티켓": 696,
      "##크": 697,
      "##마": 698,
      "잠시": 699,
      "위치": 700,
      "약국": 701,
      "다른": 702,
      "죄송합니다": 703,
      "하는데": 704,
      "참": 705,
      "서비스": 706,
      "##ᆯ게요": 707,
      "##ᅡ오": 708,
      "##해서": 709,
      "배송": 710,
      "##동": 711,
      "가능한": 712,
      "따로": 713,
      "##워": 714,
      "##겠어요": 715,
      "입어": 716,
      "##된": 717,
      "##진": 718,
      "##받": 719,
      "포": 720,
      "그럼": 721,
      "준비": 722,
      "자": 723,
      "가져": 724,
      "##권": 725,
      "##려고": 726,
      "입장": 727,
      "##뉴": 728,
      "때": 729,
      "너무": 730,
      "##단": 731,
      "증": 732,
      "바": 733,
      "##늘": 734,
      "##ᅨ요": 735,
      "의": 736,
      "##으면": 737,
      "##랑": 738,
      "직": 739,
      "앞": 740,
      "해주": 741,
      "지원": 742,
      "번호표": 743,
      "뭐": 744,
      "시간": 745,
      "##산": 746,
      "오늘": 747,
      "선": 748,
      "창": 749,
      "돼": 750,
      "##ᅥᆨ": 751,
      "메뉴": 752,
      "스": 753,
      "##아요": 754,
      "##이ᄐ": 755,
      "확인해": 756,
      "##영": 757,
      "##할게요": 758,
      "##수증": 759,
      "##출": 760,
      "못": 761,
      "중입니다": 762,
      "##피": 763,
      "화": 764,
      "##하겠습니다": 765,
      "자리이ᄐ": 766,
      "자리이탈": 767,
      "##던데": 768,
      "##께": 769,
      "될까요": 770,
      "그러": 771,
      "##예요": 772,
      "아니": 773,
      "되는": 774,
      "##방": 775,
      "걸": 776,
      "##히": 777,
      "우": 778,
      "사ᄅ": 779,
      "##복": 780,
      "##이라": 781,
      "남": 782,
      "로봇이": 783,
      "어떤": 784,
      "잘": 785,
      "게": 786,
      "민": 787,
      "창구": 788,
      "얼": 789,
      "##ᅳ려": 790,
      "##두": 791,
      "##납": 792,
      "코": 793,
      "관련": 794,
      "##폰": 795,
      "##하실": 796,
      "잠시만": 797,
      "##세": 798,
      "##어서": 799,
      "좋": 800,
      "등록": 801,
      "음": 802,
      "영수증": 803,
      "##ᅡ용": 804,
      "##ᅳᆨ": 805,
      "##공": 806,
      "##울": 807,
      "다음": 808,
      "##십시오": 809,
      "##하게": 810,
      "##든": 811,
      "##에는": 812,
      "##했습니다": 813,
      "같은데": 814,
      "새": 815,
      "어떠": 816,
      "분실": 817,
      "검": 818,
      "##되었습니다": 819,
      "사용": 820,
      "어떻게": 821,
      "추가": 822,
      "돼요": 823,
      "저를": 824,
      "판": 825,
      "민원": 826,
      "##도록": 827,
      "##ᅡ운": 828,
      "알려주": 829,
      "10": 830,
      "##래요": 831,
      "입어보": 832,
      "출": 833,
      "연": 834,
      "##부터": 835,
      "생": 836,
      "보여": 837,
      "양": 838,
      "##격": 839,
      "시ᄌ": 840,
      "수납": 841,
      "합니다": 842,
      "##며": 843,
      "종": 844,
      "##내": 845,
      "성": 846,
      "##역": 847,
      "##생": 848,
      "##르": 849,
      "편": 850,
      "##해야": 851,
      "금": 852,
      "##버": 853,
      "##셔서": 854,
      "##입": 855,
      "##있": 856,
      "##체": 857,
      "##처": 858,
      "판매": 859,
      "건가요": 860,
      "##하시는": 861,
      "##바": 862,
      "1층": 863,
      "장": 864,
      "기다려": 865,
      "##인가요": 866,
      "어디서": 867,
      "##하려고": 868,
      "##ᆯ이": 869,
      "있는데": 870,
      "##셔야": 871,
      "##업": 872,
      "##함": 873,
      "들어가": 874,
      "##아서": 875,
      "분실물": 876,
      "문의": 877,
      "이ᄅ": 878,
      "##월": 879,
      "왔는데": 880,
      "명": 881,
      "무료": 882,
      "병": 883,
      "통": 884,
      "##되는": 885,
      "저기": 886,
      "한번": 887,
      "##유": 888,
      "하겠습니다": 889,
      "공": 890,
      "있으": 891,
      "##키": 892,
      "적용": 893,
      "먹": 894,
      "가능하시": 895,
      "하나요": 896,
      "카드": 897,
      "##할까요": 898,
      "방문": 899,
      "호": 900,
      "노": 901,
      "유": 902,
      "외": 903,
      "뽀": 904,
      "##주시면": 905,
      "없습니다": 906,
      "하나": 907,
      "##민": 908,
      "어디로": 909,
      "##카": 910,
      "##계": 911,
      "##ᅡ를": 912,
      "##이드": 913,
      "##주세요": 914,
      "중인": 915,
      "##ᅦ스": 916,
      "참여": 917,
      "뽑": 918,
      "반": 919,
      "가능한가요": 920,
      "어려": 921,
      "가능하십니다": 922,
      "##겠": 923,
      "제공": 924,
      "주실": 925,
      "사람": 926,
      "##경": 927,
      "먼": 928,
      "전시회": 929,
      "##네": 930,
      "##ᆯ리": 931,
      "##에게": 932,
      "제출": 933,
      "가능할까요": 934,
      "가격": 935,
      "먼저": 936,
      "##모": 937,
      "행": 938,
      "##하여": 939,
      "드": 940,
      "##티": 941,
      "치": 942,
      "곳": 943,
      "여기서": 944,
      "근": 945,
      "옆": 946,
      "##적": 947,
      "거죠": 948,
      "##후": 949,
      "##택": 950,
      "체": 951,
      "##ᆫ드": 952,
      "어디에": 953,
      "##해요": 954,
      "얼마": 955,
      "기다려주": 956,
      "##라고": 957,
      "##액": 958,
      "병원": 959,
      "담": 960,
      "가져다": 961,
      "##핑": 962,
      "맞나요": 963,
      "완": 964,
      "쇼": 965,
      "복": 966,
      "##하지만": 967,
      "전달": 968,
      "##운": 969,
      "환": 970,
      "##쪽에": 971,
      "가장": 972,
      "되죠": 973,
      "##ᅦᆫ터": 974,
      "##코": 975,
      "##력": 976,
      "나와": 977,
      "재고가": 978,
      "않습니다": 979,
      "##편": 980,
      "없나요": 981,
      "##음": 982,
      "함": 983,
      "현금": 984,
      "며": 985,
      "##주시": 986,
      "처리": 987,
      "##개": 988,
      "직원": 989,
      "##ᅮ폰": 990,
      "시작": 991,
      "##등": 992,
      "설": 993,
      "##말": 994,
      "2층": 995,
      "##ᅡ우": 996,
      "##른": 997,
      "가이드": 998,
      "실": 999,
      "거예요": 1000,
      "보고": 1001,
      "단": 1002,
      "##봐": 1003,
      "##테": 1004,
      "함께": 1005,
      "##미": 1006,
      "그런": 1007,
      "조회": 1008,
      "에": 1009,
      "이상": 1010,
      "많이": 1011,
      "만": 1012,
      "교": 1013,
      "##항": 1014,
      "따라와": 1015,
      "추천해": 1016,
      "##ᆯ라": 1017,
      "##접": 1018,
      "완료": 1019,
      "아이": 1020,
      "죄송하지만": 1021,
      "카운": 1022,
      "카운터": 1023,
      "모두": 1024,
      "운": 1025,
      "봐": 1026,
      "지원금": 1027,
      "둘": 1028,
      "필요한": 1029,
      "앉": 1030,
      "언": 1031,
      "식": 1032,
      "##ᆸ니까": 1033,
      "점": 1034,
      "##ᅳᆯᄅ": 1035,
      "색": 1036,
      "##했는데": 1037,
      "몇": 1038,
      "원하시는": 1039,
      "최": 1040,
      "화장": 1041,
      "신분": 1042,
      "하는": 1043,
      "##블": 1044,
      "맞습니다": 1045,
      "열": 1046,
      "이용해": 1047,
      "패": 1048,
      "##프": 1049,
      "##타": 1050,
      "##페": 1051,
      "##험": 1052,
      "관람": 1053,
      "30": 1054,
      "##인데": 1055,
      "##외": 1056,
      "##ᆸ습니다": 1057,
      "##녀": 1058,
      "쇼핑": 1059,
      "의류": 1060,
      "나오": 1061,
      "불가": 1062,
      "##니까": 1063,
      "언제": 1064,
      "신기": 1065,
      "##너": 1066,
      "##ᅵᆨ": 1067,
      "##드려": 1068,
      "##년": 1069,
      "또": 1070,
      "신분증": 1071,
      "쿠폰": 1072,
      "정도": 1073,
      "파": 1074,
      "##피스": 1075,
      "가면": 1076,
      "화장실": 1077,
      "목": 1078,
      "도와드리": 1079,
      "받을": 1080,
      "가지": 1081,
      "##드를": 1082,
      "겨": 1083,
      "착": 1084,
      "##요일": 1085,
      "있다고": 1086,
      "##드로": 1087,
      "달": 1088,
      "주신": 1089,
      "신고": 1090,
      "받아": 1091,
      "##ᅳ래": 1092,
      "##쪽으로": 1093,
      "뒤": 1094,
      "##토": 1095,
      "##더": 1096,
      "그러면": 1097,
      "원피스": 1098,
      "제품은": 1099,
      "같은": 1100,
      "회": 1101,
      "##본": 1102,
      "못했습니다": 1103,
      "결과": 1104,
      "인식": 1105,
      "##츠": 1106,
      "테이": 1107,
      "피팅룸은": 1108,
      "커": 1109,
      "보이": 1110,
      "주시길": 1111,
      "주소": 1112,
      "사ᄋ": 1113,
      "같아요": 1114,
      "종류": 1115,
      "담당": 1116,
      "당": 1117,
      "건물": 1118,
      "같이": 1119,
      "성함": 1120,
      "주시겠어요": 1121,
      "##트를": 1122,
      "참고": 1123,
      "날": 1124,
      "모르": 1125,
      "상품은": 1126,
      "오른": 1127,
      "해서": 1128,
      "카페": 1129,
      "계산": 1130,
      "가야": 1131,
      "행사": 1132,
      "어서": 1133,
      "조금": 1134,
      "사진": 1135,
      "##담": 1136,
      "##별": 1137,
      "남아": 1138,
      "20": 1139,
      "##들이": 1140,
      "##길": 1141,
      "직접": 1142,
      "라": 1143,
      "내용": 1144,
      "진료실": 1145,
      "선물": 1146,
      "둘러": 1147,
      "별": 1148,
      "##점": 1149,
      "청": 1150,
      "테이블": 1151,
      "##직": 1152,
      "이름": 1153,
      "##법": 1154,
      "하고": 1155,
      "##있는": 1156,
      "##번호": 1157,
      "안내를": 1158,
      "##발": 1159,
      "##절": 1160,
      "##에요": 1161,
      "작성해": 1162,
      "줄": 1163,
      "초": 1164,
      "##사이ᄌ": 1165,
      "##ᆫ차": 1166,
      "맞죠": 1167,
      "있는지": 1168,
      "전화": 1169,
      "찾고": 1170,
      "마음": 1171,
      "금액": 1172,
      "괘": 1173,
      "할인이": 1174,
      "##섯": 1175,
      "가시면": 1176,
      "그ᄂ": 1177,
      "##ᆫ찮": 1178,
      "괜찮": 1179,
      "대기해": 1180,
      "##려면": 1181,
      "##위": 1182,
      "있으면": 1183,
      "입구": 1184,
      "##석": 1185,
      "##ᅦ이터": 1186,
      "매장은": 1187,
      "들었는데": 1188,
      "빨": 1189,
      "착용": 1190,
      "그냥": 1191,
      "주민": 1192,
      "##시는": 1193,
      "끄": 1194,
      "블ᄅ": 1195,
      "센터": 1196,
      "##기가": 1197,
      "마음에": 1198,
      "로봇": 1199,
      "본": 1200,
      "##배": 1201,
      "적어": 1202,
      "이번": 1203,
      "따라오": 1204,
      "드리고": 1205,
      "##이나": 1206,
      "이벤트는": 1207,
      "##플": 1208,
      "총": 1209,
      "아까": 1210,
      "음료": 1211,
      "바지": 1212,
      "##시간": 1213,
      "##족": 1214,
      "볼": 1215,
      "페이": 1216,
      "중에": 1217,
      "및": 1218,
      "쓰": 1219,
      "앞에": 1220,
      "##주실": 1221,
      "그리": 1222,
      "결제해": 1223,
      "택": 1224,
      "어렵습니다": 1225,
      "##돼": 1226,
      "##셨": 1227,
      "겨울": 1228,
      "##측": 1229,
      "위치해": 1230,
      "친": 1231,
      "하면": 1232,
      "저번": 1233,
      "품": 1234,
      "둘러보": 1235,
      "##난": 1236,
      "해주세요": 1237,
      "니": 1238,
      "있죠": 1239,
      "증정": 1240,
      "가능하": 1241,
      "예정": 1242,
      "따라": 1243,
      "##슨": 1244,
      "해야": 1245,
      "옆에": 1246,
      "##술": 1247,
      "##다면": 1248,
      "알겠습니다": 1249,
      "##감": 1250,
      "대상": 1251,
      "휴": 1252,
      "드립니다": 1253,
      "##준": 1254,
      "##이랑": 1255,
      "특": 1256,
      "##명서": 1257,
      "##조": 1258,
      "입어보고": 1259,
      "##불": 1260,
      "왔어요": 1261,
      "키": 1262,
      "집": 1263,
      "건데": 1264,
      "##시고": 1265,
      "##다가": 1266,
      "벌": 1267,
      "신기하": 1268,
      "색상": 1269,
      "##딩": 1270,
      "그런데": 1271,
      "버": 1272,
      "준비해": 1273,
      "김": 1274,
      "##했": 1275,
      "발급받": 1276,
      "싶어요": 1277,
      "보겠습니다": 1278,
      "온": 1279,
      "살": 1280,
      "##통": 1281,
      "찾아": 1282,
      "없는": 1283,
      "올게요": 1284,
      "##서요": 1285,
      "상담": 1286,
      "복지": 1287,
      "3층": 1288,
      "매장에서": 1289,
      "전시관": 1290,
      "##셔도": 1291,
      "##등록": 1292,
      "불러": 1293,
      "정ᄒ": 1294,
      "##판": 1295,
      "나가": 1296,
      "양해": 1297,
      "있지": 1298,
      "얼마나": 1299,
      "말씀하신": 1300,
      "쪽": 1301,
      "##량": 1302,
      "혼": 1303,
      "손": 1304,
      "##안": 1305,
      "##움": 1306,
      "간": 1307,
      "취": 1308,
      "##사이즈": 1309,
      "서비스를": 1310,
      "알아": 1311,
      "옷을": 1312,
      "음식": 1313,
      "체크": 1314,
      "포인": 1315,
      "##파": 1316,
      "연락": 1317,
      "##혀": 1318,
      "정말": 1319,
      "기다리": 1320,
      "부탁드려": 1321,
      "된": 1322,
      "이러": 1323,
      "안에": 1324,
      "##으실": 1325,
      "##각": 1326,
      "전에": 1327,
      "##어버": 1328,
      "끝": 1329,
      "있어": 1330,
      "##짜": 1331,
      "오후": 1332,
      "없어요": 1333,
      "포장": 1334,
      "##다던데": 1335,
      "하는데요": 1336,
      "정보를": 1337,
      "##되나요": 1338,
      "##는지": 1339,
      "설명": 1340,
      "할부": 1341,
      "부분": 1342,
      "잃": 1343,
      "지하": 1344,
      "##한테": 1345,
      "위해": 1346,
      "이해": 1347,
      "##메": 1348,
      "말고": 1349,
      "작품": 1350,
      "##열": 1351,
      "이벤트가": 1352,
      "잃어버": 1353,
      "업": 1354,
      "택배": 1355,
      "보내": 1356,
      "디": 1357,
      "##ᅨ택": 1358,
      "대기실": 1359,
      "##ᅳ라": 1360,
      "써": 1361,
      "##노": 1362,
      "약국이": 1363,
      "왼": 1364,
      "처음": 1365,
      "##해도": 1366,
      "무슨": 1367,
      "##애": 1368,
      "준비되어": 1369,
      "##ᅳ러": 1370,
      "##ᆻ네요": 1371,
      "##ᆯ리ᄇ": 1372,
      "##거든": 1373,
      "했는데": 1374,
      "이렇게": 1375,
      "변": 1376,
      "##거든요": 1377,
      "최대": 1378,
      "도움": 1379,
      "상품이": 1380,
      "사항": 1381,
      "브래": 1382,
      "##다는": 1383,
      "##ᆯ로": 1384,
      "모든": 1385,
      "피팅룸이": 1386,
      "재키": 1387,
      "필요합니다": 1388,
      "##립": 1389,
      "##즈": 1390,
      "##겠네요": 1391,
      "##추": 1392,
      "과": 1393,
      "아직": 1394,
      "혜택": 1395,
      "##ᅡ로": 1396,
      "엘리ᄇ": 1397,
      "정확": 1398,
      "엘리베이터": 1399,
      "##ᅦ이지": 1400,
      "사업": 1401,
      "왜": 1402,
      "보관": 1403,
      "##린": 1404,
      "여성": 1405,
      "코너": 1406,
      "##환": 1407,
      "후에": 1408,
      "##머": 1409,
      "##이라고": 1410,
      "결제할게요": 1411,
      "때문": 1412,
      "편하게": 1413,
      "##픈": 1414,
      "옷이": 1415,
      "고객님의": 1416,
      "##태": 1417,
      "##목": 1418,
      "##있습니다": 1419,
      "맡": 1420,
      "주셔야": 1421,
      "사람이": 1422,
      "##자가": 1423,
      "찍": 1424,
      "여권": 1425,
      "다ᄋ": 1426,
      "리": 1427,
      "것도": 1428,
      "컬": 1429,
      "##트로": 1430,
      "미리": 1431,
      "이런": 1432,
      "비용": 1433,
      "##인이": 1434,
      "불가능": 1435,
      "입을": 1436,
      "신청서를": 1437,
      "저기요": 1438,
      "이벤트를": 1439,
      "가족": 1440,
      "재킷": 1441,
      "표": 1442,
      "불편": 1443,
      "하던데": 1444,
      "시간이": 1445,
      "해요": 1446,
      "맛이": 1447,
      "처방": 1448,
      "##서를": 1449,
      "브랜드": 1450,
      "다양": 1451,
      "올": 1452,
      "할게요": 1453,
      "##란": 1454,
      "대한": 1455,
      "알려": 1456,
      "서류를": 1457,
      "알려주세요": 1458,
      "혼자": 1459,
      "번호표를": 1460,
      "국": 1461,
      "검사": 1462,
      "번호를": 1463,
      "가져다드리겠습니다": 1464,
      "완료되었습니다": 1465,
      "이동": 1466,
      "자세": 1467,
      "포인트": 1468,
      "##하러": 1469,
      "순": 1470,
      "카드로": 1471,
      "##하나요": 1472,
      "진단": 1473,
      "뜨": 1474,
      "때문에": 1475,
      "결제는": 1476,
      "매장에": 1477,
      "소요": 1478,
      "있어서": 1479,
      "영업": 1480,
      "##옷": 1481,
      "##개월": 1482,
      "임": 1483,
      "기간": 1484,
      "##첨": 1485,
      "##포": 1486,
      "방법": 1487,
      "큰": 1488,
      "근데": 1489,
      "뭐가": 1490,
      "적립": 1491,
      "나ᄋ": 1492,
      "진열": 1493,
      "컬러": 1494,
      "##심": 1495,
      "가지고": 1496,
      "제품이": 1497,
      "넣": 1498,
      "갈": 1499,
      "50": 1500,
      "대해": 1501,
      "주민등록": 1502,
      "##득": 1503,
      "##령": 1504,
      "##ᅡ야": 1505,
      "파악": 1506,
      "##중": 1507,
      "타": 1508,
      "원하시면": 1509,
      "##보다": 1510,
      "주시고": 1511,
      "데": 1512,
      "장애": 1513,
      "좌": 1514,
      "##육": 1515,
      "이해하지": 1516,
      "저번에": 1517,
      "들어오": 1518,
      "가방": 1519,
      "사이즈가": 1520,
      "하ᄅ": 1521,
      "별도": 1522,
      "##인지": 1523,
      "오십시오": 1524,
      "저는": 1525,
      "증상": 1526,
      "##착": 1527,
      "##백": 1528,
      "##습니까": 1529,
      "패딩": 1530,
      "티셔": 1531,
      "##카드": 1532,
      "##느": 1533,
      "카운터에서": 1534,
      "판매하고": 1535,
      "자리로": 1536,
      "예약을": 1537,
      "허": 1538,
      "##될": 1539,
      "성인": 1540,
      "상품을": 1541,
      "주셔서": 1542,
      "##ᅧ고": 1543,
      "##연": 1544,
      "친구": 1545,
      "##사항": 1546,
      "##갑": 1547,
      "용": 1548,
      "있네요": 1549,
      "시즌": 1550,
      "제품을": 1551,
      "##ᅦ이크": 1552,
      "##들은": 1553,
      "추천드립니다": 1554,
      "##결": 1555,
      "입력": 1556,
      "어느": 1557,
      "근처": 1558,
      "중이": 1559,
      "데스": 1560,
      "애": 1561,
      "따라오시면": 1562,
      "예정입니다": 1563,
      "##ᆻ던": 1564,
      "되어": 1565,
      "##설": 1566,
      "##으러": 1567,
      "뭔": 1568,
      "티켓을": 1569,
      "약국은": 1570,
      "곳이": 1571,
      "빨리": 1572,
      "수선실": 1573,
      "아우": 1574,
      "##견": 1575,
      "##ᆷ이": 1576,
      "지역": 1577,
      "걸로": 1578,
      "##대로": 1579,
      "인기": 1580,
      "오픈": 1581,
      "나온": 1582,
      "##스크": 1583,
      "주실래요": 1584,
      "아무": 1585,
      "##다니": 1586,
      "세트": 1587,
      "변경": 1588,
      "15": 1589,
      "없이": 1590,
      "##으려": 1591,
      "무료로": 1592,
      "##주시겠어요": 1593,
      "##되고": 1594,
      "우선": 1595,
      "주차장": 1596,
      "##지만": 1597,
      "가져와": 1598,
      "예약하고": 1599,
      "주문할게요": 1600,
      "거울": 1601,
      "구매하고": 1602,
      "작가": 1603,
      "증명서": 1604,
      "다섯": 1605,
      "후드": 1606,
      "안녕": 1607,
      "##밥": 1608,
      "100": 1609,
      "기준": 1610,
      "##에서는": 1611,
      "##셨습니다": 1612,
      "##막": 1613,
      "꼭": 1614,
      "받고": 1615,
      "진행하고": 1616,
      "##ᅪᆯ": 1617,
      "##그": 1618,
      "주는": 1619,
      "##으시면": 1620,
      "출력": 1621,
      "천": 1622,
      "가격이": 1623,
      "##종": 1624,
      "##ᆩ에": 1625,
      "제공해": 1626,
      "아닌": 1627,
      "##학": 1628,
      "입어봐": 1629,
      "느": 1630,
      "##드릴게요": 1631,
      "##적으로": 1632,
      "발급해": 1633,
      "보여주시면": 1634,
      "많은": 1635,
      "그리고": 1636,
      "니트": 1637,
      "필요하시면": 1638,
      "1층에": 1639,
      "성함과": 1640,
      "보험": 1641,
      "##긴": 1642,
      "교환": 1643,
      "사이즈는": 1644,
      "##ᆻ나요": 1645,
      "것으로": 1646,
      "이쪽": 1647,
      "부탁드려요": 1648,
      "기다려주세요": 1649,
      "층": 1650,
      "커피": 1651,
      "##ᅪᆯ영": 1652,
      "워": 1653,
      "##임": 1654,
      "토": 1655,
      "##ᆼ금": 1656,
      "서류는": 1657,
      "핸드": 1658,
      "통해": 1659,
      "자동": 1660,
      "서비스는": 1661,
      "서류가": 1662,
      "000원입니다": 1663,
      "일단": 1664,
      "비치": 1665,
      "선택": 1666,
      "##커": 1667,
      "창구에서": 1668,
      "될": 1669,
      "있으니": 1670,
      "오세요": 1671,
      "적혀": 1672,
      "##에도": 1673,
      "궁금": 1674,
      "홈": 1675,
      "야": 1676,
      "##ᆯ러": 1677,
      "올라": 1678,
      "품절": 1679,
      "##빙": 1680,
      "예약해": 1681,
      "앉아": 1682,
      "업무": 1683,
      "산": 1684,
      "팔": 1685,
      "잃어버려": 1686,
      "면": 1687,
      "가ᄁ": 1688,
      "해주시": 1689,
      "##ᅡ라": 1690,
      "내역": 1691,
      "진짜": 1692,
      "##줄": 1693,
      "##께서": 1694,
      "비ᄊ": 1695,
      "시작하겠습니다": 1696,
      "강": 1697,
      "오른쪽": 1698,
      "##ᆻ는데요": 1699,
      "##지는": 1700,
      "상품으로": 1701,
      "##서류": 1702,
      "드리도록": 1703,
      "가능해요": 1704,
      "영수증을": 1705,
      "티셔츠": 1706,
      "예매": 1707,
      "누": 1708,
      "구비": 1709,
      "##하기": 1710,
      "구매하면": 1711,
      "##하려면": 1712,
      "##ᅥᆯ어": 1713,
      "우측": 1714,
      "왔는데요": 1715,
      "신상": 1716,
      "예상": 1717,
      "여기가": 1718,
      "전부": 1719,
      "데스크": 1720,
      "구매할": 1721,
      "##사를": 1722,
      "##카오": 1723,
      "##하셔야": 1724,
      "드리는": 1725,
      "카카오": 1726,
      "와서": 1727,
      "##되지": 1728,
      "레": 1729,
      "수령": 1730,
      "##주십시오": 1731,
      "##름": 1732,
      "위한": 1733,
      "##어보": 1734,
      "그렇": 1735,
      "지난": 1736,
      "무인": 1737,
      "##들을": 1738,
      "피팅룸으로": 1739,
      "##영합니다": 1740,
      "기재": 1741,
      "촬영": 1742,
      "개인": 1743,
      "##좌": 1744,
      "식당": 1745,
      "내용을": 1746,
      "인식하지": 1747,
      "확인됩니다": 1748,
      "제출해": 1749,
      "급": 1750,
      "질문을": 1751,
      "치료": 1752,
      "가서": 1753,
      "##ᅡ의": 1754,
      "싶은데요": 1755,
      "잔": 1756,
      "##ᅳ림": 1757,
      "##한데": 1758,
      "##자를": 1759,
      "##ᆸ게": 1760,
      "새로": 1761,
      "진료비": 1762,
      "##양": 1763,
      "지급": 1764,
      "##므로": 1765,
      "맞아요": 1766,
      "##어서요": 1767,
      "불가능합니다": 1768,
      "##형": 1769,
      "장애인": 1770,
      "##ᅵᆷ": 1771,
      "##ᅯ요": 1772,
      "체험": 1773,
      "##으신": 1774,
      "포함": 1775,
      "호출": 1776,
      "환영합니다": 1777,
      "핸드폰": 1778,
      "##리가": 1779,
      "##센터": 1780,
      "제품으로": 1781,
      "뭐예요": 1782,
      "천천": 1783,
      "##하네요": 1784,
      "접수했습니다": 1785,
      "도와드리도록": 1786,
      "천천히": 1787,
      "놓": 1788,
      "셔": 1789,
      "없을까요": 1790,
      "현장": 1791,
      "검색": 1792,
      "운영": 1793,
      "같아서": 1794,
      "사이즈로": 1795,
      "블랙": 1796,
      "1인": 1797,
      "제일": 1798,
      "그래": 1799,
      "다양한": 1800,
      "학": 1801,
      "##순": 1802,
      "2층에": 1803,
      "상품권": 1804,
      "##은색": 1805,
      "여기는": 1806,
      "맛있": 1807,
      "##기에": 1808,
      "먹고": 1809,
      "키오": 1810,
      "창구로": 1811,
      "##디건": 1812,
      "가까운": 1813,
      "##받을": 1814,
      "가져가": 1815,
      "##활": 1816,
      "같습니다": 1817,
      "각": 1818,
      "잡": 1819,
      "않아": 1820,
      "요금": 1821,
      "##스타": 1822,
      "마ᄅ": 1823,
      "검은색": 1824,
      "이쪽으로": 1825,
      "걸리": 1826,
      "진단서": 1827,
      "응": 1828,
      "매장이": 1829,
      "손님": 1830,
      "요청하신": 1831,
      "올라가": 1832,
      "빠ᄅ": 1833,
      "삼": 1834,
      "생각": 1835,
      "참고해": 1836,
      "##황": 1837,
      "계좌": 1838,
      "##아야": 1839,
      "##거나": 1840,
      "주차는": 1841,
      "##었는데": 1842,
      "##ᅮᆨ": 1843,
      "입고": 1844,
      "좋은": 1845,
      "##실래요": 1846,
      "오래": 1847,
      "항": 1848,
      "할인되는": 1849,
      "아우터": 1850,
      "##검": 1851,
      "아니면": 1852,
      "신청서에": 1853,
      "기다려주시면": 1854,
      "회원": 1855,
      "기능": 1856,
      "붙": 1857,
      "신청서는": 1858,
      "룸": 1859,
      "여부": 1860,
      "도움이": 1861,
      "전달드립니다": 1862,
      "길": 1863,
      "##페이지": 1864,
      "그거": 1865,
      "들고": 1866,
      "확인되었습니다": 1867,
      "내일": 1868,
      "##라고요": 1869,
      "##곳": 1870,
      "지갑": 1871,
      "심": 1872,
      "##지를": 1873,
      "기계": 1874,
      "떨어": 1875,
      "홈페이지": 1876,
      "대리": 1877,
      "평": 1878,
      "##레": 1879,
      "돌": 1880,
      "예약이": 1881,
      "아이스": 1882,
      "##하려": 1883,
      "어제": 1884,
      "구매하시면": 1885,
      "##이트": 1886,
      "인터": 1887,
      "좌측": 1888,
      "10분": 1889,
      "테": 1890,
      "##투": 1891,
      "##ᅡ우스": 1892,
      "##탕": 1893,
      "수수": 1894,
      "발생": 1895,
      "자리에": 1896,
      "##참": 1897,
      "단체": 1898,
      "발권": 1899,
      "차ᄅ": 1900,
      "있으시면": 1901,
      "결정": 1902,
      "많아서": 1903,
      "##없": 1904,
      "##씩": 1905,
      "감사하겠습니다": 1906,
      "##기를": 1907,
      "구경": 1908,
      "캐": 1909,
      "부탁드릴게요": 1910,
      "방문해": 1911,
      "드려": 1912,
      "사고": 1913,
      "작가님": 1914,
      "후드티": 1915,
      "중에서": 1916,
      "sn": 1917,
      "##이에요": 1918,
      "여러": 1919,
      "왔습니다": 1920,
      "sns": 1921,
      "자ᄋ": 1922,
      "##휴": 1923,
      "주문하신": 1924,
      "##하였습니다": 1925,
      "##ᆺ한": 1926,
      "그러는데": 1927,
      "월": 1928,
      "주차권": 1929,
      "보니까": 1930,
      "옷은": 1931,
      "##발급": 1932,
      "종료": 1933,
      "앞에서": 1934,
      "설치": 1935,
      "답": 1936,
      "자세한": 1937,
      "많네요": 1938,
      "시작합니다": 1939,
      "부스": 1940,
      "##군": 1941,
      "##되면": 1942,
      "##받아": 1943,
      "##토랑": 1944,
      "나왔습니다": 1945,
      "예ᄈ": 1946,
      "왔": 1947,
      "레스": 1948,
      "구매하려고": 1949,
      "레스토랑": 1950,
      "폐": 1951,
      "##있는데": 1952,
      "언제든": 1953,
      "기입": 1954,
      "예약은": 1955,
      "알고": 1956,
      "##ᆷ플": 1957,
      "할인된": 1958,
      "문의해": 1959,
      "##더라고요": 1960,
      "가게": 1961,
      "전달해": 1962,
      "운동": 1963,
      "##교": 1964,
      "스타": 1965,
      "수수료": 1966,
      "##리는": 1967,
      "드는데": 1968,
      "추가로": 1969,
      "##넷": 1970,
      "##라인": 1971,
      "넣어": 1972,
      "것이": 1973,
      "##장님": 1974,
      "있을": 1975,
      "제외": 1976,
      "직원에게": 1977,
      "머": 1978,
      "좋아": 1979,
      "##존": 1980,
      "다녀": 1981,
      "뭔가요": 1982,
      "오전": 1983,
      "30분": 1984,
      "가을": 1985,
      "##중에": 1986,
      "뽑고": 1987,
      "이후": 1988,
      "##허": 1989,
      "현금으로": 1990,
      "특별": 1991,
      "페이로": 1992,
      "##주실래요": 1993,
      "좋게": 1994,
      "주소를": 1995,
      "##ᅳ게": 1996,
      "먹어": 1997,
      "신발": 1998,
      "확인서": 1999,
      "카디건": 2000,
      "##합": 2001,
      "두고": 2002,
      "있으며": 2003,
      "마련": 2004,
      "##마ᄋ": 2005,
      "인터넷": 2006,
      "위치하고": 2007,
      "##념": 2008,
      "여름": 2009,
      "쿠폰을": 2010,
      "이벤트에": 2011,
      "##고요": 2012,
      "##하시기": 2013,
      "코트": 2014,
      "담당자": 2015,
      "블라우스": 2016,
      "온라인": 2017,
      "식사": 2018,
      "디자": 2019,
      "할인을": 2020,
      "이벤트입니다": 2021,
      "##지가": 2022,
      "주행": 2023,
      "백": 2024,
      "구역": 2025,
      "카드를": 2026,
      "가져오": 2027,
      "공간": 2028,
      "계단": 2029,
      "법": 2030,
      "즐": 2031,
      "칸": 2032,
      "##강": 2033,
      "##션": 2034,
      "할인은": 2035,
      "준다고": 2036,
      "##기는": 2037,
      "기다려야": 2038,
      "위치를": 2039,
      "길이": 2040,
      "드릴": 2041,
      "입력해": 2042,
      "피팅룸에서": 2043,
      "계신": 2044,
      "전문": 2045,
      "##작": 2046,
      "경우에는": 2047,
      "수선이": 2048,
      "메뉴가": 2049,
      "대신": 2050,
      "채": 2051,
      "##시길": 2052,
      "없으": 2053,
      "고객님이": 2054,
      "전시장": 2055,
      "나중에": 2056,
      "##ᆷ버": 2057,
      "##으시는": 2058,
      "비치되어": 2059,
      "##박": 2060,
      "기다려주십시오": 2061,
      "없어": 2062,
      "본인": 2063,
      "알려주시면": 2064,
      "##돼요": 2065,
      "상태": 2066,
      "일정": 2067,
      "지참": 2068,
      "내에": 2069,
      "신기하다": 2070,
      "출생": 2071,
      "동일": 2072,
      "뭘": 2073,
      "곳으로": 2074,
      "##자는": 2075,
      "또는": 2076,
      "맨": 2077,
      "증빙": 2078,
      "##ᅡ래": 2079,
      "이게": 2080,
      "##거운": 2081,
      "세일하는": 2082,
      "끝나": 2083,
      "할인해": 2084,
      "##시기": 2085,
      "지나": 2086,
      "있도록": 2087,
      "좋네요": 2088,
      "귀": 2089,
      "저에게": 2090,
      "마감": 2091,
      "##렴": 2092,
      "인증": 2093,
      "반가": 2094,
      "##군요": 2095,
      "##깐": 2096,
      "수영": 2097,
      "##끼": 2098,
      "세일은": 2099,
      "##신고": 2100,
      "방금": 2101,
      "키오스크": 2102,
      "##십": 2103,
      "접수를": 2104,
      "다음에": 2105,
      "탐색": 2106,
      "당첨": 2107,
      "셔츠": 2108,
      "##ᆺ을": 2109,
      "불가합니다": 2110,
      "진열되어": 2111,
      "쓰면": 2112,
      "이미": 2113,
      "##이며": 2114,
      "환불": 2115,
      "휴대": 2116,
      "집으로": 2117,
      "##규": 2118,
      "모르겠어요": 2119,
      "할까요": 2120,
      "자리가": 2121,
      "아닙니다": 2122,
      "전화번호": 2123,
      "##마다": 2124,
      "여섯": 2125,
      "늦": 2126,
      "뽑아": 2127,
      "##일을": 2128,
      "기본": 2129,
      "##십니다": 2130,
      "관련해서": 2131,
      "여기에": 2132,
      "먹을": 2133,
      "##하셔서": 2134,
      "qr": 2135,
      "##메리": 2136,
      "저렴": 2137,
      "##걸이": 2138,
      "사려고": 2139,
      "남아있습니다": 2140,
      "사이즈를": 2141,
      "희": 2142,
      "##인분": 2143,
      "##라서": 2144,
      "네이": 2145,
      "##ᆸ네요": 2146,
      "멤버": 2147,
      "정장": 2148,
      "꼬": 2149,
      "##질": 2150,
      "샐러": 2151,
      "##창": 2152,
      "없네요": 2153,
      "서비스가": 2154,
      "##겠습니까": 2155,
      "##론": 2156,
      "문제": 2157,
      "부서": 2158,
      "높": 2159,
      "챙": 2160,
      "받으실": 2161,
      "##머니": 2162,
      "딱": 2163,
      "적용됩니다": 2164,
      "아메리": 2165,
      "엄": 2166,
      "입어볼": 2167,
      "걸려": 2168,
      "연락처": 2169,
      "잠옷": 2170,
      "확인을": 2171,
      "일시": 2172,
      "바ᄁ": 2173,
      "우와": 2174,
      "삼성": 2175,
      "충": 2176,
      "스ᄐ": 2177,
      "시에": 2178,
      "한복": 2179,
      "있다던데": 2180,
      "수선은": 2181,
      "신상품": 2182,
      "거주": 2183,
      "종류가": 2184,
      "##슈": 2185,
      "예약했는데": 2186,
      "태": 2187,
      "도와드리고": 2188,
      "##실로": 2189,
      "##사에": 2190,
      "마련되어": 2191,
      "##초": 2192,
      "사실": 2193,
      "증정해": 2194,
      "##디어": 2195,
      "바코": 2196,
      "3번": 2197,
      "##쳐": 2198,
      "##어가": 2199,
      "어디예요": 2200,
      "필요하신": 2201,
      "##생님": 2202,
      "착용해": 2203,
      "##ᅳᆯ리": 2204,
      "사전": 2205,
      "##되셨습니다": 2206,
      "##ᅳ네요": 2207,
      "내부": 2208,
      "왼쪽": 2209,
      "수도": 2210,
      "보호": 2211,
      "안내드리겠습니다": 2212,
      "재발급": 2213,
      "##주로": 2214,
      "##드릴": 2215,
      "센터에": 2216,
      "구매하신": 2217,
      "3일": 2218,
      "확": 2219,
      "##시에": 2220,
      "기념": 2221,
      "인원": 2222,
      "##밖에": 2223,
      "물어보": 2224,
      "결제가": 2225,
      "않고": 2226,
      "수영복": 2227,
      "무이": 2228,
      "##하셨": 2229,
      "간단": 2230,
      "##다는데": 2231,
      "자유": 2232,
      "나오는": 2233,
      "##ᆻ는지": 2234,
      "추첨": 2235,
      "상품입니다": 2236,
      "농": 2237,
      "청바": 2238,
      "정확히": 2239,
      "모바": 2240,
      "모바일": 2241,
      "이곳": 2242,
      "제품의": 2243,
      "##그래": 2244,
      "보면": 2245,
      "##ᆻ으": 2246,
      "맡겨": 2247,
      "챙겨": 2248,
      "아동": 2249,
      "베이지": 2250,
      "진료를": 2251,
      "##보고": 2252,
      "목도": 2253,
      "순서": 2254,
      "메뉴판": 2255,
      "입어볼게요": 2256,
      "굿": 2257,
      "정산": 2258,
      "##카노": 2259,
      "빈": 2260,
      "##하시고": 2261,
      "구매하실": 2262,
      "##이라서": 2263,
      "##집": 2264,
      "코로": 2265,
      "##자로": 2266,
      "눈": 2267,
      "아메리카노": 2268,
      "##ᅳ런": 2269,
      "##스터": 2270,
      "납": 2271,
      "물품": 2272,
      "물론": 2273,
      "원장님": 2274,
      "출시": 2275,
      "물론입니다": 2276,
      "미디어": 2277,
      "남성": 2278,
      "##대에": 2279,
      "번에": 2280,
      "멤버십": 2281,
      "##켜": 2282,
      "선착": 2283,
      "선착순": 2284,
      "##예": 2285,
      "적어주시면": 2286,
      "어울": 2287,
      "맞ᄎ": 2288,
      "적용되는": 2289,
      "속": 2290,
      "보조": 2291,
      "갖": 2292,
      "있는데요": 2293,
      "구입": 2294,
      "##혼": 2295,
      "앞쪽": 2296,
      "##하십니까": 2297,
      "넓": 2298,
      "저쪽": 2299,
      "잠깐": 2300,
      "이름을": 2301,
      "입어봐도": 2302,
      "웨": 2303,
      "##만한": 2304,
      "힘": 2305,
      "않으": 2306,
      "##카드로": 2307,
      "저희는": 2308,
      "들어가시면": 2309,
      "라지": 2310,
      "##층에": 2311,
      "품목": 2312,
      "밑": 2313,
      "##이네요": 2314,
      "박": 2315,
      "프리": 2316,
      "##례": 2317,
      "오른쪽으로": 2318,
      "코로나": 2319,
      "##즘": 2320,
      "나이": 2321,
      "##힌": 2322,
      "앱": 2323,
      "환자": 2324,
      "취소": 2325,
      "반갑습니다": 2326,
      "##패": 2327,
      "이것": 2328,
      "계속": 2329,
      "얼마ᄋ": 2330,
      "5분": 2331,
      "##명을": 2332,
      "찾으시는": 2333,
      "해주시겠어요": 2334,
      "##ᆻ다": 2335,
      "##정보": 2336,
      "매장입니다": 2337,
      "고객님께서": 2338,
      "말씀을": 2339,
      "##셨는데": 2340,
      "##겠죠": 2341,
      "시술": 2342,
      "동의": 2343,
      "##치료": 2344,
      "상관": 2345,
      "만들": 2346,
      "정확한": 2347,
      "의사": 2348,
      "양식": 2349,
      "##ᆫ색": 2350,
      "없는데": 2351,
      "작성하면": 2352,
      "골": 2353,
      "현대": 2354,
      "##제품": 2355,
      "재고는": 2356,
      "보이네요": 2357,
      "무이자": 2358,
      "요즘": 2359,
      "가능하죠": 2360,
      "##ᅡ란": 2361,
      "이용하실": 2362,
      "##드리도록": 2363,
      "건지": 2364,
      "사진을": 2365,
      "##망": 2366,
      "처방전": 2367,
      "##이면": 2368,
      "혹은": 2369,
      "남자": 2370,
      "얼마예요": 2371,
      "이전": 2372,
      "쪽에": 2373,
      "혜택이": 2374,
      "어디에서": 2375,
      "사업자": 2376,
      "종이": 2377,
      "보건": 2378,
      "관련된": 2379,
      "도로": 2380,
      "안녕하십니까": 2381,
      "까": 2382,
      "약국을": 2383,
      "##쉬": 2384,
      "대로": 2385,
      "없어서": 2386,
      "위주로": 2387,
      "3개월": 2388,
      "시설": 2389,
      "중복": 2390,
      "쉬": 2391,
      "따": 2392,
      "같네요": 2393,
      "##ᅳ랑": 2394,
      "구매할게요": 2395,
      "제한": 2396,
      "근처에": 2397,
      "이건": 2398,
      "보이는": 2399,
      "주시나요": 2400,
      "##볼": 2401,
      "볼게요": 2402,
      "날ᄍ": 2403,
      "##실은": 2404,
      "전용": 2405,
      "와도": 2406,
      "파는": 2407,
      "찍어": 2408,
      "비싸": 2409,
      "해외": 2410,
      "별로": 2411,
      "안녕히": 2412,
      "답변": 2413,
      "아래": 2414,
      "##튼": 2415,
      "수요일": 2416,
      "접수처": 2417,
      "불편을": 2418,
      "##장이": 2419,
      "##자리": 2420,
      "영수증은": 2421,
      "##ᅳ레스": 2422,
      "많아": 2423,
      "차량": 2424,
      "디자인": 2425,
      "사면": 2426,
      "신청을": 2427,
      "##영수증": 2428,
      "앞쪽에": 2429,
      "주말": 2430,
      "마지": 2431,
      "##맨": 2432,
      "보실": 2433,
      "피팅룸을": 2434,
      "배송해": 2435,
      "마지막": 2436,
      "실례": 2437,
      "설명해": 2438,
      "##하죠": 2439,
      "##주시기": 2440,
      "즐거운": 2441,
      "##스를": 2442,
      "일반": 2443,
      "작은": 2444,
      "일고": 2445,
      "찌": 2446,
      "신기하네요": 2447,
      "휴대폰": 2448,
      "##으려고": 2449,
      "##닝": 2450,
      "##몰": 2451,
      "부탁드려도": 2452,
      "이용하시면": 2453,
      "##주일": 2454,
      "##보겠습니다": 2455,
      "몰라": 2456,
      "가입": 2457,
      "결제할": 2458,
      "쪽으로": 2459,
      "상관없": 2460,
      "출구": 2461,
      "해도": 2462,
      "그렇게": 2463,
      "판매하는": 2464,
      "##관계": 2465,
      "##이드를": 2466,
      "돈": 2467,
      "##이는": 2468,
      "첫": 2469,
      "약을": 2470,
      "뒤에": 2471,
      "재미": 2472,
      "대상으로": 2473,
      "##이라는": 2474,
      "##축": 2475,
      "것을": 2476,
      "항목": 2477,
      "##하려는데": 2478,
      "예상됩니다": 2479,
      "1번": 2480,
      "납부": 2481,
      "12": 2482,
      "소요됩니다": 2483,
      "빠른": 2484,
      "샐러드": 2485,
      "안내하겠습니다": 2486,
      "외에": 2487,
      "##증명서": 2488,
      "##획": 2489,
      "조회해": 2490,
      "적힌": 2491,
      "다녀오": 2492,
      "프로": 2493,
      "입장권": 2494,
      "##글": 2495,
      "이내": 2496,
      "금방": 2497,
      "##별로": 2498,
      "##하도록": 2499,
      "존": 2500,
      "출입": 2501,
      "뜻": 2502,
      "신청하러": 2503,
      "당일": 2504,
      "곧": 2505,
      "하죠": 2506,
      "되는데": 2507,
      "##한다고": 2508,
      "결제를": 2509,
      "현금영수증": 2510,
      "##ᆨ스": 2511,
      "수량": 2512,
      "메뉴로": 2513,
      "##드리고": 2514,
      "별도의": 2515,
      "qr코": 2516,
      "하려고": 2517,
      "##ᆷ을": 2518,
      "상이": 2519,
      "##라는": 2520,
      "싶습니다": 2521,
      "목도리": 2522,
      "적어야": 2523,
      "##킨": 2524,
      "가이드를": 2525,
      "경우에": 2526,
      "증명": 2527,
      "도와드릴": 2528,
      "조금만": 2529,
      "성함을": 2530,
      "##살": 2531,
      "있던데": 2532,
      "운전": 2533,
      "##따": 2534,
      "##적인": 2535,
      "전화로": 2536,
      "복도": 2537,
      "이름은": 2538,
      "저희가": 2539,
      "일시불": 2540,
      "##같": 2541,
      "제시": 2542,
      "접수해": 2543,
      "가셔서": 2544,
      "##하는데": 2545,
      "##은품": 2546,
      "사은품": 2547,
      "해주실래요": 2548,
      "표시": 2549,
      "##줘요": 2550,
      "##과에서": 2551,
      "쇼핑백": 2552,
      "##ᅦᆯ": 2553,
      "한정": 2554,
      "파란": 2555,
      "책": 2556,
      "2번": 2557,
      "부탁드리겠습니다": 2558,
      "드네요": 2559,
      "막": 2560,
      "##자의": 2561,
      "동안": 2562,
      "날짜": 2563,
      "님": 2564,
      "3층에": 2565,
      "주민등록증": 2566,
      "비스": 2567,
      "신고서": 2568,
      "구비되어": 2569,
      "와야": 2570,
      "신청할": 2571,
      "아니라": 2572,
      "홍": 2573,
      "이따": 2574,
      "봐도": 2575,
      "호출해": 2576,
      "장소": 2577,
      "##늬": 2578,
      "보시면": 2579,
      "크림": 2580,
      "나ᄂ": 2581,
      "시간은": 2582,
      "보이는데": 2583,
      "스타일": 2584,
      "제휴": 2585,
      "##으로는": 2586,
      "어린": 2587,
      "##허증": 2588,
      "작성해야": 2589,
      "##톡": 2590,
      "같아서요": 2591,
      "40": 2592,
      "줄이": 2593,
      "이벤트로": 2594,
      "지갑을": 2595,
      "약국에서": 2596,
      "11": 2597,
      "##ᅳ레": 2598,
      "##덟": 2599,
      "##째": 2600,
      "대해서": 2601,
      "관계": 2602,
      "생년": 2603,
      "##편에": 2604,
      "빼": 2605,
      "여자": 2606,
      "건강": 2607,
      "별도로": 2608,
      "m사이즈": 2609,
      "##웨": 2610,
      "##하십시오": 2611,
      "##듣": 2612,
      "알아듣": 2613,
      "빵": 2614,
      "예약할": 2615,
      "##자에": 2616,
      "##번에": 2617,
      "줄래요": 2618,
      "않은": 2619,
      "인기가": 2620,
      "필요한데": 2621,
      "미디엄": 2622,
      "##이요": 2623,
      "포토": 2624,
      "생년월": 2625,
      "##크를": 2626,
      "##주신": 2627,
      "되는지": 2628,
      "좋을": 2629,
      "케이크": 2630,
      "고르": 2631,
      "써야": 2632,
      "접수되었습니다": 2633,
      "가능한지": 2634,
      "##받고": 2635,
      "보려고": 2636,
      "로봇한테": 2637,
      "엘리베이터를": 2638,
      "실례합니다": 2639,
      "##깅": 2640,
      "아파": 2641,
      "초코": 2642,
      "야외": 2643,
      "선생님": 2644,
      "화이트": 2645,
      "##이고": 2646,
      "시키": 2647,
      "밖에": 2648,
      "##씨": 2649,
      "보니": 2650,
      "만한": 2651,
      "생각보다": 2652,
      "##대가": 2653,
      "어려운": 2654,
      "그렇습니다": 2655,
      "##투맨": 2656,
      "맨투맨": 2657,
      "##이가": 2658,
      "아쉬": 2659,
      "프런": 2660,
      "향": 2661,
      "할인하는": 2662,
      "000원이": 2663,
      "처리해": 2664,
      "요청사항": 2665,
      "인감": 2666,
      "오른쪽에": 2667,
      "##위치": 2668,
      "들어가면": 2669,
      "둘러보고": 2670,
      "전체": 2671,
      "빨간": 2672,
      "##장을": 2673,
      "번호는": 2674,
      "세트로": 2675,
      "좋아요": 2676,
      "자동차": 2677,
      "똑": 2678,
      "##팔": 2679,
      "가족관계": 2680,
      "바람": 2681,
      "생겨": 2682,
      "카운터에": 2683,
      "문자": 2684,
      "편안": 2685,
      "화장실은": 2686,
      "##ᆻ다고": 2687,
      "보러": 2688,
      "##해서요": 2689,
      "급여": 2690,
      "세일이": 2691,
      "##뜨": 2692,
      "##시까지": 2693,
      "메뉴는": 2694,
      "라테": 2695,
      "찾을": 2696,
      "절": 2697,
      "보조금": 2698,
      "안내가": 2699,
      "단추": 2700,
      "탄": 2701,
      "이걸로": 2702,
      "갈게요": 2703,
      "##ᆫ드위치": 2704,
      "##봐도": 2705,
      "거라": 2706,
      "자세히": 2707,
      "##책": 2708,
      "수선을": 2709,
      "##워서": 2710,
      "사유": 2711,
      "##병": 2712,
      "##스는": 2713,
      "레깅": 2714,
      "시까지": 2715,
      "##죽": 2716,
      "맡기": 2717,
      "결제하고": 2718,
      "직원을": 2719,
      "위치는": 2720,
      "전달드리겠습니다": 2721,
      "모르겠네요": 2722,
      "##잖": 2723,
      "왼쪽에": 2724,
      "에스": 2725,
      "##크림": 2726,
      "##짝": 2727,
      "##ᆻ거든요": 2728,
      "##퍼": 2729,
      "받은": 2730,
      "##받았습니다": 2731,
      "s사이즈": 2732,
      "피해": 2733,
      "등록은": 2734,
      "제공하고": 2735,
      "저도": 2736,
      "대여": 2737,
      "##했어요": 2738,
      "파악됩니다": 2739,
      "어떡": 2740,
      "##ᅡ랑": 2741,
      "어딘": 2742,
      "일주일": 2743,
      "##레이터": 2744,
      "여덟": 2745,
      "원래": 2746,
      "접수가": 2747,
      "메뉴입니다": 2748,
      "따뜨": 2749,
      "넘": 2750,
      "필수": 2751,
      "파스타": 2752,
      "결제하겠습니다": 2753,
      "구매가": 2754,
      "내려": 2755,
      "대기시간": 2756,
      "안에서": 2757,
      "파란색": 2758,
      "##그램": 2759,
      "위에": 2760,
      "세일을": 2761,
      "위임": 2762,
      "점심": 2763,
      "비용이": 2764,
      "매장으로": 2765,
      "받았는데": 2766,
      "법인": 2767,
      "##ᅡ료": 2768,
      "체크해": 2769,
      "잃어버렸는데": 2770,
      "##향": 2771,
      "##찌": 2772,
      "음료는": 2773,
      "##롭게": 2774,
      "할부로": 2775,
      "##침": 2776,
      "찾으러": 2777,
      "판매하나요": 2778,
      "##하라고": 2779,
      "허리": 2780,
      "굿즈": 2781,
      "주에": 2782,
      "앉으면": 2783,
      "잃어버린": 2784,
      "가는": 2785,
      "엄청": 2786,
      "##컬": 2787,
      "xl": 2788,
      "정기": 2789,
      "긴": 2790,
      "화장실이": 2791,
      "오시면": 2792,
      "포스터": 2793,
      "민원실": 2794,
      "곳에": 2795,
      "##벌": 2796,
      "주시겠습니까": 2797,
      "발급을": 2798,
      "창구에": 2799,
      "조리": 2800,
      "봐요": 2801,
      "알아보겠습니다": 2802,
      "된다고": 2803,
      "노란": 2804,
      "입구에": 2805,
      "##못": 2806,
      "신기하네": 2807,
      "예약한": 2808,
      "발급은": 2809,
      "아호": 2810,
      "샌드위치": 2811,
      "곳은": 2812,
      "열한": 2813,
      "##주시길": 2814,
      "##ᆽ어": 2815,
      "사회": 2816,
      "진행하는": 2817,
      "##스가": 2818,
      "와이": 2819,
      "##화점": 2820,
      "남아있": 2821,
      "청소": 2822,
      "용어": 2823,
      "필요하": 2824,
      "주시는": 2825,
      "오면": 2826,
      "들어와": 2827,
      "문화": 2828,
      "교육": 2829,
      "싶어서요": 2830,
      "이번에": 2831,
      "##ᅳ라고": 2832,
      "##용으로": 2833,
      "연결": 2834,
      "대리인": 2835,
      "폐기": 2836,
      "##실이": 2837,
      "말을": 2838,
      "부모": 2839,
      "우리": 2840,
      "전시회장": 2841,
      "접종": 2842,
      "이동해": 2843,
      "##지원": 2844,
      "공간이": 2845,
      "피부": 2846,
      "##구나": 2847,
      "필요할": 2848,
      "진행됩니다": 2849,
      "24": 2850,
      "##증이": 2851,
      "##결제": 2852,
      "자유롭게": 2853,
      "##도를": 2854,
      "서명": 2855,
      "상황": 2856,
      "밖": 2857,
      "관리": 2858,
      "에스컬": 2859,
      "에스컬레이터": 2860,
      "##때": 2861,
      "##수를": 2862,
      "갑": 2863,
      "##드렸습니다": 2864,
      "금액이": 2865,
      "기다리면": 2866,
      "##ᆻ으면": 2867,
      "구매를": 2868,
      "##증을": 2869,
      "수선도": 2870,
      "문의를": 2871,
      "통장": 2872,
      "안쪽에": 2873,
      "해서요": 2874,
      "이제": 2875,
      "저한테": 2876,
      "##들도": 2877,
      "##고기": 2878,
      "어머": 2879,
      "걸까요": 2880,
      "상시": 2881,
      "주문받았습니다": 2882,
      "##학생": 2883,
      "노란색": 2884,
      "무상": 2885,
      "알려줄": 2886,
      "언제까지": 2887,
      "로비": 2888,
      "일부": 2889,
      "롱": 2890,
      "형": 2891,
      "친절": 2892,
      "규": 2893,
      "##가는": 2894,
      "배송은": 2895,
      "##녁": 2896,
      "피팅룸에": 2897,
      "보통": 2898,
      "가격은": 2899,
      "출생신고": 2900,
      "도로명": 2901,
      "샘플": 2902,
      "금요일": 2903,
      "가져왔는데": 2904,
      "상세": 2905,
      "다행": 2906,
      "생일": 2907,
      "알림": 2908,
      "다르": 2909,
      "스테이크": 2910,
      "운전면": 2911,
      "권": 2912,
      "소견": 2913,
      "시간을": 2914,
      "##드리면": 2915,
      "편하신": 2916,
      "테이블이": 2917,
      "평일": 2918,
      "플": 2919,
      "푸": 2920,
      "##사오": 2921,
      "##급여": 2922,
      "##사오니": 2923,
      "소요될": 2924,
      "정리": 2925,
      "카페는": 2926,
      "여부를": 2927,
      "제작": 2928,
      "잘나": 2929,
      "신제품": 2930,
      "많은데": 2931,
      "잘못": 2932,
      "코너에": 2933,
      "입어봐야": 2934,
      "드레스": 2935,
      "##쇼": 2936,
      "저녁": 2937,
      "도와주세요": 2938,
      "##비는": 2939,
      "모자": 2940,
      "생활": 2941,
      "없고": 2942,
      "화면": 2943,
      "청구": 2944,
      "글": 2945,
      "있나": 2946,
      "##기로": 2947,
      "관한": 2948,
      "##받으실": 2949,
      "제출해야": 2950,
      "##대에서": 2951,
      "진료실로": 2952,
      "결제하면": 2953,
      "금일": 2954,
      "앉아서": 2955,
      "요청해": 2956,
      "하셨는데": 2957,
      "맛": 2958,
      "##쯤": 2959,
      "##될까요": 2960,
      "신청하려고": 2961,
      "품절입니다": 2962,
      "자리는": 2963,
      "할인하고": 2964,
      "이용이": 2965,
      "비어": 2966,
      "알려주시": 2967,
      "##세서": 2968,
      "광": 2969,
      "##시가": 2970,
      "상품의": 2971,
      "담아": 2972,
      "떨어져": 2973,
      "올리": 2974,
      "페이스": 2975,
      "샤": 2976,
      "어디죠": 2977,
      "등본": 2978,
      "쓰여": 2979,
      "데스크에서": 2980,
      "첨": 2981,
      "어ᄍ": 2982,
      "##ᆷ플리": 2983,
      "인스타": 2984,
      "신청서가": 2985,
      "2층으로": 2986,
      "일시불로": 2987,
      "500원": 2988,
      "들어간": 2989,
      "소득": 2990,
      "들어가도": 2991,
      "알려드리겠습니다": 2992,
      "감면": 2993,
      "새우": 2994,
      "들어온": 2995,
      "진행해": 2996,
      "치즈": 2997,
      "백화점": 2998,
      "어울리": 2999,
      "비슷한": 3000,
      "제시해": 3001,
      "영상": 3002,
      "합": 3003,
      "덕": 3004,
      "##줄래요": 3005,
      "가까": 3006,
      "남은": 3007,
      "같은데요": 3008,
      "찢어": 3009,
      "내야": 3010,
      "나옵니다": 3011,
      "출력해": 3012,
      "물리": 3013,
      "##자기": 3014,
      "스티": 3015,
      "학생": 3016,
      "바코드를": 3017,
      "##하셔도": 3018,
      "##분이": 3019,
      "상품도": 3020,
      "적으면": 3021,
      "주문이": 3022,
      "등록해": 3023,
      "사항을": 3024,
      "##찰": 3025,
      "프런트": 3026,
      "네이버": 3027,
      "##쿠폰": 3028,
      "가요": 3029,
      "뽑아야": 3030,
      "신청은": 3031,
      "약국에": 3032,
      "로봇이랑": 3033,
      "##분에": 3034,
      "현재는": 3035,
      "시켜": 3036,
      "직원이": 3037,
      "진행하지": 3038,
      "등록도": 3039,
      "반팔": 3040,
      "오신": 3041,
      "##들에게": 3042,
      "##레이": 3043,
      "##권을": 3044,
      "생기": 3045,
      "##ᆼ크": 3046,
      "매운": 3047,
      "구두": 3048,
      "##으시": 3049,
      "자격": 3050,
      "확인이": 3051,
      "증빙서류": 3052,
      "그때": 3053,
      "보여드리겠습니다": 3054,
      "##번호를": 3055,
      "소지": 3056,
      "되면": 3057,
      "피팅이": 3058,
      "기록": 3059,
      "입장하시면": 3060,
      "##했던": 3061,
      "##영하": 3062,
      "맞는": 3063,
      "##으시고": 3064,
      "매장을": 3065,
      "000": 3066,
      "없으면": 3067,
      "제공됩니다": 3068,
      "먹었습니다": 3069,
      "예약도": 3070,
      "번호표는": 3071,
      "좌석": 3072,
      "맞춤": 3073,
      "차를": 3074,
      "할인쿠폰": 3075,
      "구매한": 3076,
      "##차를": 3077,
      "여성복": 3078,
      "비싼": 3079,
      "외국": 3080,
      "하나만": 3081,
      "커플": 3082,
      "##람": 3083,
      "##ᆻ죠": 3084,
      "사이": 3085,
      "잠시만요": 3086,
      "호명": 3087,
      "뒷": 3088,
      "작가님의": 3089,
      "##전시": 3090,
      "세대": 3091,
      "좋겠어요": 3092,
      "되게": 3093,
      "말하는": 3094,
      "기간이": 3095,
      "빨간색": 3096,
      "##신청": 3097,
      "000원의": 3098,
      "스카": 3099,
      "행사는": 3100,
      "즉": 3101,
      "##겠는데": 3102,
      "미술": 3103,
      "##에서도": 3104,
      "이용할": 3105,
      "##스로": 3106,
      "가고": 3107,
      "음성": 3108,
      "부분이": 3109,
      "카카오톡": 3110,
      "떼": 3111,
      "아기": 3112,
      "##층으로": 3113,
      "##이체": 3114,
      "##로드": 3115,
      "종료되었습니다": 3116,
      "어린이": 3117,
      "수술": 3118,
      "예방": 3119,
      "바람막": 3120,
      "60": 3121,
      "##일은": 3122,
      "화요일": 3123,
      "##츠를": 3124,
      "##봐야": 3125,
      "20분": 3126,
      "##과로": 3127,
      "재고를": 3128,
      "##볶": 3129,
      "##억": 3130,
      "팸플리": 3131,
      "버튼": 3132,
      "움": 3133,
      "전송": 3134,
      "##라도": 3135,
      "소재": 3136,
      "액": 3137,
      "어플": 3138,
      "움직": 3139,
      "##페이": 3140,
      "테니": 3141,
      "##시부터": 3142,
      "가십시오": 3143,
      "따라오세요": 3144,
      "진료확인": 3145,
      "개인정보": 3146,
      "상의": 3147,
      "자리를": 3148,
      "무료입니다": 3149,
      "지원금은": 3150,
      "##했는데요": 3151,
      "덕분에": 3152,
      "55": 3153,
      "싸": 3154,
      "##도가": 3155,
      "하ᄂ": 3156,
      "##해져": 3157,
      "대기가": 3158,
      "##놓": 3159,
      "안내문": 3160,
      "##럽": 3161,
      "##무늬": 3162,
      "등록을": 3163,
      "##인데요": 3164,
      "이쪽에": 3165,
      "##어도": 3166,
      "주시고요": 3167,
      "동물": 3168,
      "봐야": 3169,
      "최근": 3170,
      "가져다주세요": 3171,
      "sns에": 3172,
      "전기": 3173,
      "하시면": 3174,
      "정수": 3175,
      "##오니": 3176,
      "##사이즈로": 3177,
      "##크로": 3178,
      "##ᅮᆯ러": 3179,
      "명의": 3180,
      "흰색": 3181,
      "알아서": 3182,
      "받으러": 3183,
      "오늘은": 3184,
      "가능하며": 3185,
      "제외하고": 3186,
      "이것도": 3187,
      "스ᄏ": 3188,
      "우편": 3189,
      "마네": 3190,
      "##트가": 3191,
      "들어가는": 3192,
      "깜": 3193,
      "주사": 3194,
      "피자": 3195,
      "입장하면": 3196,
      "9월": 3197,
      "센터에서": 3198,
      "활": 3199,
      "검사를": 3200,
      "##폐": 3201,
      "안쪽": 3202,
      "안내는": 3203,
      "갑자기": 3204,
      "##주는": 3205,
      "가도": 3206,
      "신용": 3207,
      "죄송합니다만": 3208,
      "확인하겠습니다": 3209,
      "받는": 3210,
      "받으면": 3211,
      "홀": 3212,
      "뽑는": 3213,
      "종류를": 3214,
      "계좌이체": 3215,
      "있다면": 3216,
      "한다고": 3217,
      "구매해": 3218,
      "자리에서": 3219,
      "창가": 3220,
      "다운": 3221,
      "물어": 3222,
      "##산부": 3223,
      "알려주실래요": 3224,
      "링": 3225,
      "얘": 3226,
      "##일까요": 3227,
      "옷도": 3228,
      "팬": 3229,
      "그걸로": 3230,
      "##상품": 3231,
      "번호로": 3232,
      "청바지": 3233,
      "올라가시면": 3234,
      "##되죠": 3235,
      "주문해": 3236,
      "기입해": 3237,
      "짜": 3238,
      "##온": 3239,
      "첨부": 3240,
      "무어": 3241,
      "매장에서는": 3242,
      "비용은": 3243,
      "발급이": 3244,
      "맛있게": 3245,
      "##었어요": 3246,
      "진행합니다": 3247,
      "번호가": 3248,
      "나서": 3249,
      "앉아도": 3250,
      "##독": 3251,
      "피팅룸까지": 3252,
      "##컨": 3253,
      "소매": 3254,
      "위치한": 3255,
      "사용이": 3256,
      "국민": 3257,
      "##철": 3258,
      "##몬": 3259,
      "물리치료": 3260,
      "##날": 3261,
      "##킹": 3262,
      "구체": 3263,
      "수납을": 3264,
      "##율이": 3265,
      "##창구": 3266,
      "##찬": 3267,
      "##무소": 3268,
      "##들의": 3269,
      "##명하": 3270,
      "##줘": 3271,
      "내려가": 3272,
      "투": 3273,
      "이유": 3274,
      "지원금을": 3275,
      "추첨을": 3276,
      "제대로": 3277,
      "##으로도": 3278,
      "제품입니다": 3279,
      "의미": 3280,
      "남녀": 3281,
      "의류를": 3282,
      "디저": 3283,
      "양말": 3284,
      "보건소": 3285,
      "점심시간": 3286,
      "붙어": 3287,
      "자주": 3288,
      "요청을": 3289,
      "한해서": 3290,
      "알겠어요": 3291,
      "봤는데": 3292,
      "신분증과": 3293,
      "신규": 3294,
      "맞게": 3295,
      "임산부": 3296,
      "거울이": 3297,
      "봉": 3298,
      "있게": 3299,
      "진료받": 3300,
      "에어": 3301,
      "않았습니다": 3302,
      "##럼": 3303,
      "##렛": 3304,
      "결제하실": 3305,
      "상태입니다": 3306,
      "운전면허증": 3307,
      "스티커": 3308,
      "쇼핑을": 3309,
      "가까이": 3310,
      "진료실은": 3311,
      "원하는": 3312,
      "배송도": 3313,
      "상담을": 3314,
      "선택해": 3315,
      "##ᅧᆨ": 3316,
      "대표": 3317,
      "나머": 3318,
      "못하였습니다": 3319,
      "상품에": 3320,
      "빠": 3321,
      "##라는데": 3322,
      "절차": 3323,
      "지정": 3324,
      "접수는": 3325,
      "소진": 3326,
      "회색": 3327,
      "사야": 3328,
      "청소년": 3329,
      "소견서": 3330,
      "정보는": 3331,
      "##내역": 3332,
      "15분": 3333,
      "##으려면": 3334,
      "상품들": 3335,
      "끊": 3336,
      "지난번에": 3337,
      "난": 3338,
      "도착": 3339,
      "다만": 3340,
      "유명": 3341,
      "##홍": 3342,
      "사인": 3343,
      "운동복": 3344,
      "치마": 3345,
      "신청서와": 3346,
      "작품을": 3347,
      "##꺼": 3348,
      "##깔": 3349,
      "아니에요": 3350,
      "업무를": 3351,
      "그래도": 3352,
      "제품도": 3353,
      "##워요": 3354,
      "##단에": 3355,
      "쓸": 3356,
      "문의는": 3357,
      "##등본": 3358,
      "따뜻한": 3359,
      "##이신": 3360,
      "시부터": 3361,
      "입장이": 3362,
      "사람들이": 3363,
      "200": 3364,
      "파우": 3365,
      "이어": 3366,
      "기억": 3367,
      "##맞": 3368,
      "##하려고요": 3369,
      "임대": 3370,
      "검진": 3371,
      "베이": 3372,
      "##표를": 3373,
      "##까지만": 3374,
      "서비스도": 3375,
      "각각": 3376,
      "이벤ᄐ": 3377,
      "##새": 3378,
      "##주차": 3379,
      "셀": 3380,
      "##친": 3381,
      "죄송한데": 3382,
      "않는": 3383,
      "메뉴를": 3384,
      "참여가": 3385,
      "떡": 3386,
      "신청하면": 3387,
      "진행되고": 3388,
      "##처럼": 3389,
      "조회합니다": 3390,
      "발급받을": 3391,
      "월요일": 3392,
      "##잖아요": 3393,
      "트ᄅ": 3394,
      "얼음": 3395,
      "##되며": 3396,
      "##염": 3397,
      "방법이": 3398,
      "보험사에": 3399,
      "즉시": 3400,
      "되지": 3401,
      "의류는": 3402,
      "하루": 3403,
      "적혀있는": 3404,
      "신분증을": 3405,
      "##메뉴": 3406,
      "##씨가": 3407,
      "핑크": 3408,
      "나오나요": 3409,
      "##ᅡ르": 3410,
      "계약": 3411,
      "착석": 3412,
      "이벤트도": 3413,
      "것은": 3414,
      "지원금이": 3415,
      "000원에": 3416,
      "하는지": 3417,
      "나눠": 3418,
      "크": 3419,
      "검정": 3420,
      "운영하": 3421,
      "아직도": 3422,
      "6개월": 3423,
      "멀": 3424,
      "##ᆻ고": 3425,
      "금액은": 3426,
      "위치해있습니다": 3427,
      "끝에": 3428,
      "중이니": 3429,
      "2인분": 3430,
      "##시로": 3431,
      "있네": 3432,
      "##ᅡᆷ에": 3433,
      "대화": 3434,
      "재난": 3435,
      "대기인": 3436,
      "도와드렸습니다": 3437,
      "##드는": 3438,
      "할인받을": 3439,
      "보여주세요": 3440,
      "빠르게": 3441,
      "사본": 3442,
      "발견": 3443,
      "문자로": 3444,
      "위임장": 3445,
      "마네킹": 3446,
      "##큼": 3447,
      "싶어서": 3448,
      "쭉": 3449,
      "여기로": 3450,
      "한국": 3451,
      "입장해": 3452,
      "달라": 3453,
      "인해": 3454,
      "교통": 3455,
      "층에": 3456,
      "##ᆻ을": 3457,
      "확인되셨습니다": 3458,
      "위치가": 3459,
      "포장해": 3460,
      "알려주시겠어요": 3461,
      "꺼": 3462,
      "##샤": 3463,
      "필요해요": 3464,
      "운동화": 3465,
      "높은": 3466,
      "날짜를": 3467,
      "래": 3468,
      "세상": 3469,
      "분이": 3470,
      "나가실": 3471,
      "똑같": 3472,
      "##채": 3473,
      "안경": 3474,
      "헷": 3475,
      "이하": 3476,
      "코스": 3477,
      "외부": 3478,
      "면제": 3479,
      "헷가": 3480,
      "걸릴까요": 3481,
      "정가": 3482,
      "목요일": 3483,
      "이쪽에서": 3484,
      "기존": 3485,
      "이걸": 3486,
      "바꿔": 3487,
      "중인가요": 3488,
      "들었어요": 3489,
      "친구가": 3490,
      "##예약": 3491,
      "액세서": 3492,
      "##취": 3493,
      "밀": 3494,
      "밥": 3495,
      "강아": 3496,
      "도와드립니다": 3497,
      "관내": 3498,
      "신분증만": 3499,
      "상이합니다": 3500,
      "눌러": 3501,
      "불러주세요": 3502,
      "자료": 3503,
      "카드가": 3504,
      "##있네요": 3505,
      "가격으로": 3506,
      "태그": 3507,
      "않으셔도": 3508,
      "탄산": 3509,
      "##먹": 3510,
      "##보험": 3511,
      "##칠": 3512,
      "후기": 3513,
      "추천을": 3514,
      "구역으로": 3515,
      "희망": 3516,
      "##ᅳᆯ로": 3517,
      "일행": 3518,
      "색깔": 3519,
      "행사가": 3520,
      "그래요": 3521,
      "저렴한": 3522,
      "최대한": 3523,
      "##홍색": 3524,
      "셀프": 3525,
      "결제도": 3526,
      "참여할": 3527,
      "일곱": 3528,
      "##ᆯᄅ": 3529,
      "##수가": 3530,
      "오는": 3531,
      "원무": 3532,
      "콜라": 3533,
      "레깅스": 3534,
      "2주": 3535,
      "가려면": 3536,
      "##으니": 3537,
      "가방을": 3538,
      "펜": 3539,
      "##로는": 3540,
      "앉을": 3541,
      "##쇄": 3542,
      "아프": 3543,
      "쿠": 3544,
      "##깨": 3545,
      "수선해": 3546,
      "기준으로": 3547,
      "비싸네요": 3548,
      "많습니다": 3549,
      "소개": 3550,
      "##검진": 3551,
      "지금부터": 3552,
      "티켓은": 3553,
      "사용할": 3554,
      "도움을": 3555,
      "속옷": 3556,
      "정신": 3557,
      "지원해": 3558,
      "당장": 3559,
      "이월": 3560,
      "기초": 3561,
      "괜찮습니다": 3562,
      "가죽": 3563,
      "##주면": 3564,
      "유니": 3565,
      "##널": 3566,
      "좋은데": 3567,
      "수납은": 3568,
      "교복": 3569,
      "스카프": 3570,
      "결혼": 3571,
      "확인합니다": 3572,
      "##드시": 3573,
      "작성하시면": 3574,
      "배송이": 3575,
      "최소": 3576,
      "##기에서": 3577,
      "타고": 3578,
      "##효": 3579,
      "골라": 3580,
      "들어요": 3581,
      "##려고요": 3582,
      "키오스크에서": 3583,
      "몰라서": 3584,
      "##경하": 3585,
      "홈페이지에서": 3586,
      "맞는지": 3587,
      "##복지": 3588,
      "왼쪽으로": 3589,
      "주민등록등본": 3590,
      "확인하고": 3591,
      "해주시면": 3592,
      "뒤쪽에": 3593,
      "진료실이": 3594,
      "풀": 3595,
      "말해": 3596,
      "가격에": 3597,
      "##일에": 3598,
      "묻": 3599,
      "꽃": 3600,
      "갖다": 3601,
      "가족관계증명서": 3602,
      "##ᆸ스": 3603,
      "##집니다": 3604,
      "상품들은": 3605,
      "좋습니다": 3606,
      "예약하면": 3607,
      "도와주시겠어요": 3608,
      "그린": 3609,
      "놓고": 3610,
      "예쁜": 3611,
      "주문은": 3612,
      "아이가": 3613,
      "건물에": 3614,
      "궁금한": 3615,
      "슈": 3616,
      "안쪽으로": 3617,
      "필요한가요": 3618,
      "선물할": 3619,
      "있던": 3620,
      "해드리겠습니다": 3621,
      "건너": 3622,
      "해주실": 3623,
      "자동으로": 3624,
      "운영하고": 3625,
      "스몰": 3626,
      "동일한": 3627,
      "여ᄍ": 3628,
      "##일이": 3629,
      "편안한": 3630,
      "##급자": 3631,
      "옷걸이": 3632,
      "증상을": 3633,
      "탈": 3634,
      "중이라": 3635,
      "그려": 3636,
      "받으": 3637,
      "혀": 3638,
      "차례": 3639,
      "요청사항을": 3640,
      "부담": 3641,
      "이내에": 3642,
      "텀": 3643,
      "재입": 3644,
      "민원을": 3645,
      "기다리시면": 3646,
      "알아듣지": 3647,
      "##숍": 3648,
      "##플ᄅ": 3649,
      "이주": 3650,
      "어디인가요": 3651,
      "세부": 3652,
      "##블러": 3653,
      "원피스는": 3654,
      "텀블러": 3655,
      "앞으로": 3656,
      "드는": 3657,
      "수선실에서": 3658,
      "누르": 3659,
      "우측에": 3660,
      "네이비": 3661,
      "18": 3662,
      "가정": 3663,
      "여행": 3664,
      "해물": 3665,
      "신청해": 3666,
      "서빙": 3667,
      "괜찮을까요": 3668,
      "응모": 3669,
      "튀": 3670,
      "개별": 3671,
      "##인의": 3672,
      "##김": 3673,
      "병원에서": 3674,
      "하실": 3675,
      "서울": 3676,
      "엑스": 3677,
      "잡아": 3678,
      "이따가": 3679,
      "##기도": 3680,
      "역": 3681,
      "해줄": 3682,
      "올려주": 3683,
      "파악하지": 3684,
      "대기인원": 3685,
      "이용에": 3686,
      "대기실에서": 3687,
      "##치를": 3688,
      "##찌개": 3689,
      "##얼": 3690,
      "응대": 3691,
      "케이": 3692,
      "있고": 3693,
      "스커": 3694,
      "힘들": 3695,
      "하신": 3696,
      "무스": 3697,
      "테이블에": 3698,
      "##가입": 3699,
      "열두": 3700,
      "센터로": 3701,
      "왔거든요": 3702,
      "##리로": 3703,
      "확인할": 3704,
      "다니": 3705,
      "신청이": 3706,
      "병원에": 3707,
      "##ᅡ우처": 3708,
      "##보실": 3709,
      "위해서": 3710,
      "그렇군요": 3711,
      "##장에": 3712,
      "조끼": 3713,
      "말합니다": 3714,
      "와인": 3715,
      "##ᅦ스트": 3716,
      "색상이": 3717,
      "아파서": 3718,
      "4층": 3719,
      "안전": 3720,
      "번만": 3721,
      "기재해": 3722,
      "놔": 3723,
      "##남": 3724,
      "##잔": 3725,
      "필요하면": 3726,
      "qr코드": 3727,
      "불러주시면": 3728,
      "저쪽에": 3729,
      "등산": 3730,
      "놀라": 3731,
      "로비에": 3732,
      "##손": 3733,
      "##앙": 3734,
      "##주셔서": 3735,
      "하네요": 3736,
      "측": 3737,
      "##서가": 3738,
      "할인되나요": 3739,
      "물건을": 3740,
      "따른": 3741,
      "쿠폰은": 3742,
      "주민센터": 3743,
      "블루": 3744,
      "회원가입": 3745,
      "딸": 3746,
      "수는": 3747,
      "사이드": 3748,
      "반드시": 3749,
      "##실에": 3750,
      "바지는": 3751,
      "충전": 3752,
      "13": 3753,
      "않네요": 3754,
      "옷으로": 3755,
      "종류의": 3756,
      "사항이": 3757,
      "내역을": 3758,
      "인원이": 3759,
      "콘": 3760,
      "##시설": 3761,
      "그레이": 3762,
      "경품": 3763,
      "확인했습니다": 3764,
      "남아있는": 3765,
      "잘나가는": 3766,
      "매대": 3767,
      "신청하는": 3768,
      "##졌어요": 3769,
      "서류에": 3770,
      "베이지색": 3771,
      "폐기물": 3772,
      "떡볶": 3773,
      "문자를": 3774,
      "얼마인가요": 3775,
      "영수증도": 3776,
      "한해": 3777,
      "뭔지": 3778,
      "아웃": 3779,
      "##데요": 3780,
      "수액": 3781,
      "##실에서": 3782,
      "중앙": 3783,
      "##분의": 3784,
      "##국수": 3785,
      "색상은": 3786,
      "하야": 3787,
      "여긴": 3788,
      "직원분": 3789,
      "##었습니다": 3790,
      "카메": 3791,
      "공연": 3792,
      "은": 3793,
      "##스크를": 3794,
      "일요일": 3795,
      "##티슈": 3796,
      "가져다주시겠어요": 3797,
      "##주시고": 3798,
      "얘기": 3799,
      "주나요": 3800,
      "물티슈": 3801,
      "이용하고": 3802,
      "김치": 3803,
      "취득": 3804,
      "바우처": 3805,
      "10월": 3806,
      "에이": 3807,
      "##사가": 3808,
      "명이": 3809,
      "정확하게": 3810,
      "여쭤": 3811,
      "1년": 3812,
      "약국으로": 3813,
      "tv": 3814,
      "빙": 3815,
      "##ᅦᆺ이": 3816,
      "신속": 3817,
      "현황": 3818,
      "준비서류": 3819,
      "입구에서": 3820,
      "##인가": 3821,
      "주머니": 3822,
      "보네요": 3823,
      "도와주실": 3824,
      "방향": 3825,
      "하나씩": 3826,
      "간단한": 3827,
      "벽": 3828,
      "휘": 3829,
      "##브": 3830,
      "##펜": 3831,
      "영화": 3832,
      "통신": 3833,
      "치워": 3834,
      "지금은": 3835,
      "곳에서": 3836,
      "까지": 3837,
      "여기에서": 3838,
      "매대에": 3839,
      "할인가": 3840,
      "내용은": 3841,
      "초밥": 3842,
      "둘러보시고": 3843,
      "##라스": 3844,
      "발송": 3845,
      "개의": 3846,
      "##필": 3847,
      "창구가": 3848,
      "넓은": 3849,
      "꽤": 3850,
      "##수납": 3851,
      "초록": 3852,
      "괜찮은": 3853,
      "혜택을": 3854,
      "나이키": 3855,
      "매장에는": 3856,
      "세일하고": 3857,
      "허가": 3858,
      "전문점": 3859,
      "꽂": 3860,
      "##웨어": 3861,
      "아홉시": 3862,
      "무스탕": 3863,
      "##숙": 3864,
      "있습니까": 3865,
      "시스": 3866,
      "예약할게요": 3867,
      "모르겠는데": 3868,
      "이름이": 3869,
      "세대주": 3870,
      "루": 3871,
      "갔다": 3872,
      "수가": 3873,
      "개명": 3874,
      "준다던데": 3875,
      "칸에": 3876,
      "이ᄈ": 3877,
      "하지": 3878,
      "싶은": 3879,
      "버려주": 3880,
      "해주시나요": 3881,
      "바람막이": 3882,
      "##센": 3883,
      "듣": 3884,
      "그런지": 3885,
      "또한": 3886,
      "원피스를": 3887,
      "여성용": 3888,
      "기모": 3889,
      "결제하시면": 3890,
      "않아서": 3891,
      "지난주": 3892,
      "##하시길": 3893,
      "해결": 3894,
      "부과": 3895,
      "결제하려고": 3896,
      "번째": 3897,
      "유효": 3898,
      "치킨": 3899,
      "괜찮아요": 3900,
      "바코드": 3901,
      "골프": 3902,
      "##기간": 3903,
      "##트는": 3904,
      "제품에": 3905,
      "작성하는": 3906,
      "양이": 3907,
      "##ᅳ라이": 3908,
      "어깨": 3909,
      "##되었으": 3910,
      "의견": 3911,
      "알려주실": 3912,
      "있어야": 3913,
      "지하에": 3914,
      "걸려요": 3915,
      "되고": 3916,
      "되겠습니다": 3917,
      "열리": 3918,
      "##북": 3919,
      "일을": 3920,
      "선물을": 3921,
      "택배로": 3922,
      "쌀": 3923,
      "##렌": 3924,
      "##답": 3925,
      "하시": 3926,
      "내에서": 3927,
      "해주시고": 3928,
      "문의사항": 3929,
      "음식이": 3930,
      "대기실은": 3931,
      "엑스레이": 3932,
      "입금": 3933,
      "말씀하시는": 3934,
      "##물을": 3935,
      "의류가": 3936,
      "써도": 3937,
      "##물은": 3938,
      "배치": 3939,
      "작품은": 3940,
      "수선실이": 3941,
      "##라면": 3942,
      "혼인": 3943,
      "##지에": 3944,
      "##사무소": 3945,
      "없어서요": 3946,
      "행복": 3947,
      "둘러볼게요": 3948,
      "예쁘네요": 3949,
      "양육": 3950,
      "대상자": 3951,
      "일곱시": 3952,
      "아쉽네요": 3953,
      "70": 3954,
      "다리": 3955,
      "##ᆻ었는데": 3956,
      "거기": 3957,
      "할인행": 3958,
      "##통이": 3959,
      "필요하실": 3960,
      "배송비": 3961,
      "어떡하죠": 3962,
      "인스타그램": 3963,
      "##베": 3964,
      "##서는": 3965,
      "고장": 3966,
      "나라": 3967,
      "##루": 3968,
      "주택": 3969,
      "받으신": 3970,
      "티켓팅": 3971,
      "양도": 3972,
      "런": 3973,
      "##이시": 3974,
      "##일로": 3975,
      "없을": 3976,
      "취업": 3977,
      "무인수납": 3978,
      "포토존": 3979,
      "##지원금": 3980,
      "##까지는": 3981,
      "유료": 3982,
      "행사를": 3983,
      "식품": 3984,
      "격": 3985,
      "없으며": 3986,
      "갖고": 3987,
      "25": 3988,
      "##값": 3989,
      "계산은": 3990,
      "##량이": 3991,
      "##서에": 3992,
      "보여드리면": 3993,
      "편한": 3994,
      "##스트": 3995,
      "##ᅳ린": 3996,
      "##ᅢᆼ신": 3997,
      "배가": 3998,
      "문의하신": 3999,
      "먹는": 4000,
      "원두": 4001,
      "지금도": 4002,
      "카드는": 4003,
      "66": 4004,
      "##즈를": 4005,
      "##이니": 4006,
      "시원": 4007,
      "감자": 4008,
      "어딘지": 4009,
      "##처리": 4010,
      "처방받": 4011,
      "##폼": 4012,
      "액세서리": 4013,
      "##ᆨᄂ": 4014,
      "가려고": 4015,
      "맞은": 4016,
      "감사해요": 4017,
      "계산해": 4018,
      "새로운": 4019,
      "문제가": 4020,
      "##드리는": 4021,
      "싶네요": 4022,
      "상품권으로": 4023,
      "적용이": 4024,
      "학교": 4025,
      "도장": 4026,
      "토요일": 4027,
      "돌아": 4028,
      "캠": 4029,
      "줘요": 4030,
      "수당": 4031,
      "##드린": 4032,
      "분홍색": 4033,
      "일이": 4034,
      "##접종": 4035,
      "유명한": 4036,
      "##꾸": 4037,
      "주면": 4038,
      "##하십니다": 4039,
      "전시는": 4040,
      "창고": 4041,
      "반품": 4042,
      "커서": 4043,
      "예약하려고": 4044,
      "발행": 4045,
      "파나요": 4046,
      "그림": 4047,
      "아닌가요": 4048,
      "##아와": 4049,
      "코너로": 4050,
      "인터넷에서": 4051,
      "협": 4052,
      "참여하고": 4053,
      "임신": 4054,
      "드렸습니다": 4055,
      "4인": 4056,
      "##스ᄐ": 4057,
      "추후": 4058,
      "나와요": 4059,
      "##패딩": 4060,
      "구체적으로": 4061,
      "크게": 4062,
      "##수님": 4063,
      "구제": 4064,
      "주문을": 4065,
      "3층으로": 4066,
      "발생합니다": 4067,
      "초록색": 4068,
      "퇴": 4069,
      "##뿐": 4070,
      "들어서": 4071,
      "##검사": 4072,
      "##xl": 4073,
      "티켓으로": 4074,
      "뭐죠": 4075,
      "장갑": 4076,
      "병원은": 4077,
      "신분증이": 4078,
      "쿠키": 4079,
      "5층": 4080,
      "퍼": 4081,
      "아픈": 4082,
      "가능하신": 4083,
      "그르": 4084,
      "환경": 4085,
      "하지만": 4086,
      "원피스가": 4087,
      "들었는데요": 4088,
      "기간은": 4089,
      "버튼을": 4090,
      "브ᄅ": 4091,
      "대형": 4092,
      "1층으로": 4093,
      "1층에서": 4094,
      "맘에": 4095,
      "편의": 4096,
      "입은": 4097,
      "작성할": 4098,
      "때는": 4099,
      "우비": 4100,
      "사러": 4101,
      "제출할": 4102,
      "청년": 4103,
      "있어서요": 4104,
      "시스테": 4105,
      "정책": 4106,
      "##져서": 4107,
      "사랑": 4108,
      "행정": 4109,
      "##학교": 4110,
      "활용": 4111,
      "드릴게요": 4112,
      "##라색": 4113,
      "제공되고": 4114,
      "처리가": 4115,
      "응급": 4116,
      "온라인으로": 4117,
      "광고": 4118,
      "하셨": 4119,
      "보유": 4120,
      "없죠": 4121,
      "한데": 4122,
      "재산": 4123,
      "건가": 4124,
      "언제쯤": 4125,
      "언제든지": 4126,
      "##ᆼ장": 4127,
      "고민": 4128,
      "도대": 4129,
      "##과는": 4130,
      "연어": 4131,
      "나와있는데": 4132,
      "쿠폰이": 4133,
      "나가셔서": 4134,
      "증상이": 4135,
      "도대체": 4136,
      "##보리": 4137,
      "##스러": 4138,
      "국가": 4139,
      "진행되는": 4140,
      "거주지": 4141,
      "옥": 4142,
      "##려는데": 4143,
      "만든": 4144,
      "코너에서": 4145,
      "좌측에": 4146,
      "300": 4147,
      "갱신": 4148,
      "헤": 4149,
      "##ᆺ데": 4150,
      "##봉": 4151,
      "겁니다": 4152,
      "대체": 4153,
      "넉ᄂ": 4154,
      "##더니": 4155,
      "따라오십시오": 4156,
      "타임": 4157,
      "1인분": 4158,
      "저렴하게": 4159,
      "연락처를": 4160,
      "런치": 4161,
      "넉넉": 4162,
      "주차를": 4163,
      "고등": 4164,
      "##전에": 4165,
      "작년": 4166,
      "롯데": 4167,
      "스무": 4168,
      "이곳에서": 4169,
      "맞춰": 4170,
      "부대": 4171,
      "올려주시면": 4172,
      "##면에": 4173,
      "##구니": 4174,
      "매표": 4175,
      "수선하고": 4176,
      "등의": 4177,
      "시간에": 4178,
      "드실": 4179,
      "바지를": 4180,
      "볼펜": 4181,
      "21": 4182,
      "베스트": 4183,
      "##이어": 4184,
      "해주셔야": 4185,
      "영수증이": 4186,
      "분실물을": 4187,
      "스포": 4188,
      "관련한": 4189,
      "##밀": 4190,
      "대기실이": 4191,
      "재킷은": 4192,
      "받아야": 4193,
      "밝": 4194,
      "제출하시면": 4195,
      "##하셨습니다": 4196,
      "진료는": 4197,
      "000원을": 4198,
      "들어갈": 4199,
      "인식이": 4200,
      "페이백": 4201,
      "##정을": 4202,
      "경량": 4203,
      "기능을": 4204,
      "중으로": 4205,
      "##잡": 4206,
      "##소득": 4207,
      "하얀색": 4208,
      "독": 4209,
      "벨": 4210,
      "제도": 4211,
      "주변에": 4212,
      "주문해도": 4213,
      "재밌": 4214,
      "다행이네요": 4215,
      "흡": 4216,
      "인식해": 4217,
      "건데요": 4218,
      "누가": 4219,
      "헷갈리": 4220,
      "80": 4221,
      "습": 4222,
      "정보가": 4223,
      "어른": 4224,
      "##ᅧᆼ외": 4225,
      "정형외": 4226,
      "빙수": 4227,
      "##칸": 4228,
      "##구이": 4229,
      "내가": 4230,
      "배송을": 4231,
      "포인트로": 4232,
      "##맞이": 4233,
      "##금액": 4234,
      "진료가": 4235,
      "티켓이": 4236,
      "카페가": 4237,
      "취급": 4238,
      "컬러는": 4239,
      "양식을": 4240,
      "##주셔야": 4241,
      "시간대": 4242,
      "##바지": 4243,
      "반대": 4244,
      "에그": 4245,
      "겨울옷": 4246,
      "휴무": 4247,
      "연락드리겠습니다": 4248,
      "영업시간": 4249,
      "결혼식": 4250,
      "##볼게요": 4251,
      "말도": 4252,
      "##비용": 4253,
      "원활": 4254,
      "작성하신": 4255,
      "살짝": 4256,
      "맛있어": 4257,
      "예방접종": 4258,
      "##지고": 4259,
      "구청": 4260,
      "기장": 4261,
      "어딨어요": 4262,
      "##관에서": 4263,
      "참가": 4264,
      "의자": 4265,
      "본인이": 4266,
      "분의": 4267,
      "가이드해": 4268,
      "계시면": 4269,
      "생계": 4270,
      "어려우": 4271,
      "방법을": 4272,
      "롱패딩": 4273,
      "탕": 4274,
      "##놔": 4275,
      "##34": 4276,
      "신기해요": 4277,
      "알아봐": 4278,
      "챙겨와": 4279,
      "##켓": 4280,
      "##푸": 4281,
      "예술": 4282,
      "나왔어요": 4283,
      "목걸이": 4284,
      "택배비": 4285,
      "사항은": 4286,
      "재킷을": 4287,
      "스포츠": 4288,
      "중이라고": 4289,
      "고객님께": 4290,
      "남겨": 4291,
      "주소로": 4292,
      "부분을": 4293,
      "히": 4294,
      "##파요": 4295,
      "정상": 4296,
      "자꾸": 4297,
      "실시": 4298,
      "20대": 4299,
      "방법은": 4300,
      "b동": 4301,
      "##컵": 4302,
      "##하신다면": 4303,
      "아이보리": 4304,
      "내부에": 4305,
      "##ᆻ다가": 4306,
      "##하니까": 4307,
      "약이": 4308,
      "닫": 4309,
      "전시를": 4310,
      "걸어": 4311,
      "출산": 4312,
      "쇼핑몰": 4313,
      "해설": 4314,
      "줄여": 4315,
      "김에": 4316,
      "답변으로": 4317,
      "나머지": 4318,
      "라인": 4319,
      "보라색": 4320,
      "걸린": 4321,
      "용도": 4322,
      "밑에": 4323,
      "여기요": 4324,
      "계세요": 4325,
      "느ᄁ": 4326,
      "대해서는": 4327,
      "격리": 4328,
      "연고": 4329,
      "오라고": 4330,
      "도슨": 4331,
      "할머니": 4332,
      "참고하시기": 4333,
      "컬러가": 4334,
      "하려": 4335,
      "를": 4336,
      "가라고": 4337,
      "가운": 4338,
      "##주시나요": 4339,
      "인식했습니다": 4340,
      "수수료는": 4341,
      "##되네요": 4342,
      "마스크": 4343,
      "인한": 4344,
      "나와있는": 4345,
      "화장실을": 4346,
      "휴게": 4347,
      "##지면": 4348,
      "아파요": 4349,
      "체온": 4350,
      "바뀌": 4351,
      "4번": 4352,
      "해당하는": 4353,
      "토마": 4354,
      "깔": 4355,
      "##ᅮ어": 4356,
      "안으로": 4357,
      "주차증": 4358,
      "나는": 4359,
      "공동": 4360,
      "가이드가": 4361,
      "실물": 4362,
      "관람객": 4363,
      "##이므로": 4364,
      "도서": 4365,
      "할인율이": 4366,
      "걸어가": 4367,
      "목티": 4368,
      "특성": 4369,
      "처음이라": 4370,
      "##써": 4371,
      "저와": 4372,
      "스웨": 4373,
      "어울리는": 4374,
      "얼리": 4375,
      "당첨돼": 4376,
      "주스": 4377,
      "지불": 4378,
      "보여주면": 4379,
      "출시된": 4380,
      "와이셔": 4381,
      "생기면": 4382,
      "특성상": 4383,
      "접수하시면": 4384,
      "계단을": 4385,
      "컵": 4386,
      "신한": 4387,
      "교수님": 4388,
      "회사": 4389,
      "선물로": 4390,
      "닭": 4391,
      "문이": 4392,
      "계획": 4393,
      "소상": 4394,
      "의자가": 4395,
      "코너를": 4396,
      "형태": 4397,
      "그려진": 4398,
      "##설이": 4399,
      "사이즈도": 4400,
      "서비스로": 4401,
      "종류는": 4402,
      "찾아가": 4403,
      "##시나요": 4404,
      "주로": 4405,
      "구매는": 4406,
      "편히": 4407,
      "카드사": 4408,
      "가능하다고": 4409,
      "구비서류": 4410,
      "잡고": 4411,
      "꽉": 4412,
      "##이죠": 4413,
      "제로": 4414,
      "자체": 4415,
      "충분": 4416,
      "##칙": 4417,
      "제품들은": 4418,
      "##식을": 4419,
      "의자에": 4420,
      "스파": 4421,
      "라이": 4422,
      "리더": 4423,
      "소상공": 4424,
      "##자와": 4425,
      "제거": 4426,
      "적는": 4427,
      "데려": 4428,
      "오른쪽에서": 4429,
      "요리": 4430,
      "찾겠어요": 4431,
      "##복을": 4432,
      "걸려있는": 4433,
      "단추가": 4434,
      "크네요": 4435,
      "초등": 4436,
      "##빵": 4437,
      "이사": 4438,
      "##여서": 4439,
      "대기하셔야": 4440,
      "군": 4441,
      "사라": 4442,
      "22": 4443,
      "##아오": 4444,
      "질문에": 4445,
      "선호": 4446,
      "회사에": 4447,
      "어울릴": 4448,
      "##있던데": 4449,
      "가이드는": 4450,
      "색상으로": 4451,
      "발급받아": 4452,
      "국내": 4453,
      "팸플릿": 4454,
      "습득": 4455,
      "지인": 4456,
      "##징": 4457,
      "매주": 4458,
      "옷에": 4459,
      "신청서만": 4460,
      "공사": 4461,
      "늦게": 4462,
      "접수처에서": 4463,
      "##어를": 4464,
      "구성": 4465,
      "신청하려면": 4466,
      "주차했는데": 4467,
      "##단을": 4468,
      "아니요": 4469,
      "창구는": 4470,
      "##ᅳ라는": 4471,
      "얼리버": 4472,
      "괴": 4473,
      "##돌": 4474,
      "##으니까": 4475,
      "사용하실": 4476,
      "근로": 4477,
      "모르겠": 4478,
      "로봇은": 4479,
      "체크하면": 4480,
      "검정색": 4481,
      "##엔": 4482,
      "##받는": 4483,
      "뽑으시고": 4484,
      "전시회를": 4485,
      "빨대": 4486,
      "보호자": 4487,
      "꽂아": 4488,
      "토마토": 4489,
      "16": 4490,
      "복잡": 4491,
      "만약": 4492,
      "날이": 4493,
      "한정판": 4494,
      "강아지": 4495,
      "##사ᄋ": 4496,
      "거는": 4497,
      "넥": 4498,
      "모자를": 4499,
      "문을": 4500,
      "준비된": 4501,
      "계산할게요": 4502,
      "증정하는": 4503,
      "예약했는데요": 4504,
      "존재": 4505,
      "사망": 4506,
      "로제": 4507,
      "목이": 4508,
      "뜻이": 4509,
      "인터넷으로": 4510,
      "외국인": 4511,
      "##리고": 4512,
      "전까지": 4513,
      "분들": 4514,
      "입장하려고": 4515,
      "며칠": 4516,
      "구경하고": 4517,
      "남성용": 4518,
      "##같이": 4519,
      "23": 4520,
      "예약하신": 4521,
      "공용": 4522,
      "흡연": 4523,
      "이야": 4524,
      "되나": 4525,
      "원내": 4526,
      "이름과": 4527,
      "요금이": 4528,
      "원장님께": 4529,
      "아노": 4530,
      "구매해야": 4531,
      "##마트": 4532,
      "현금결제": 4533,
      "앉고": 4534,
      "팝": 4535,
      "받아주십시오": 4536,
      "전시관에서": 4537,
      "##카드는": 4538,
      "기계가": 4539,
      "진료확인서": 4540,
      "에어컨": 4541,
      "##ᆻ나": 4542,
      "##하며": 4543,
      "##고리": 4544,
      "서비스의": 4545,
      "바다": 4546,
      "사용하고": 4547,
      "제출하면": 4548,
      "불러주십시오": 4549,
      "지하철": 4550,
      "입을만한": 4551,
      "채널": 4552,
      "오프": 4553,
      "픽": 4554,
      "##치가": 4555,
      "건축": 4556,
      "들어갑니다": 4557,
      "했는데요": 4558,
      "싸게": 4559,
      "아노락": 4560,
      "란": 4561,
      "##드ᄅ": 4562,
      "##ᆯ체": 4563,
      "가구": 4564,
      "##ᅢᆨ스": 4565,
      "##물관": 4566,
      "위치에서": 4567,
      "의료": 4568,
      "사려": 4569,
      "진단서를": 4570,
      "매표소": 4571,
      "소상공인": 4572,
      "하의": 4573,
      "##룩": 4574,
      "##농": 4575,
      "##약국": 4576,
      "##류는": 4577,
      "많아요": 4578,
      "하나는": 4579,
      "봐주세요": 4580,
      "갈아": 4581,
      "결정할게요": 4582,
      "생년월일을": 4583,
      "주의": 4584,
      "##면서": 4585,
      "질문해": 4586,
      "통합": 4587,
      "잃어버렸어요": 4588,
      "데스크에": 4589,
      "담당자분": 4590,
      "픽업": 4591,
      "확인하실": 4592,
      "부족": 4593,
      "얼마죠": 4594,
      "기다려주시기": 4595,
      "##점이": 4596,
      "업로드": 4597,
      "친구랑": 4598,
      "호명해": 4599,
      "##벼": 4600,
      "##디다": 4601,
      "##00원입니다": 4602,
      "그곳": 4603,
      "메인": 4604,
      "자가": 4605,
      "##ᆯ론": 4606,
      "디자인이": 4607,
      "##박이": 4608,
      "##센트": 4609,
      "옥상": 4610,
      "##짜리": 4611,
      "아디다": 4612,
      "구조": 4613,
      "##료는": 4614,
      "축": 4615,
      "방송": 4616,
      "보여요": 4617,
      "보여주신": 4618,
      "계산대에서": 4619,
      "지급됩니다": 4620,
      "미술관": 4621,
      "구매했는데": 4622,
      "접수하면": 4623,
      "않나요": 4624,
      "소주": 4625,
      "관람하면": 4626,
      "30일": 4627,
      "만들어": 4628,
      "짐": 4629,
      "아주": 4630,
      "오고": 4631,
      "출차": 4632,
      "눈이": 4633,
      "탈의": 4634,
      "그릇": 4635,
      "칼": 4636,
      "대기하시면": 4637,
      "앞접": 4638,
      "##둥": 4639,
      "신고서를": 4640,
      "테이블로": 4641,
      "들어오시면": 4642,
      "주차장에": 4643,
      "가기": 4644,
      "맞을": 4645,
      "맞을까요": 4646,
      "냉": 4647,
      "민원접수": 4648,
      "관람하실": 4649,
      "##판이": 4650,
      "시즌오": 4651,
      "느끼": 4652,
      "비어있는": 4653,
      "캠핑": 4654,
      "조각": 4655,
      "내면": 4656,
      "얼리버드": 4657,
      "가실": 4658,
      "##는데요": 4659,
      "##한다는": 4660,
      "받아요": 4661,
      "##다고요": 4662,
      "숏": 4663,
      "대리인이": 4664,
      "않으며": 4665,
      "주문하면": 4666,
      "민원은": 4667,
      "쓰는": 4668,
      "쓰고": 4669,
      "기다리고": 4670,
      "불가능한": 4671,
      "수면": 4672,
      "고마ᄋ": 4673,
      "세일도": 4674,
      "있으나": 4675,
      "대기실로": 4676,
      "손님이": 4677,
      "프로그램": 4678,
      "이름으로": 4679,
      "저번달": 4680,
      "일정을": 4681,
      "디저트": 4682,
      "넥타": 4683,
      "늘": 4684,
      "##ᆷ에": 4685,
      "##홀": 4686,
      "그대로": 4687,
      "오늘부터": 4688,
      "장만": 4689,
      "##율": 4690,
      "부과됩니다": 4691,
      "신청해야": 4692,
      "##분들이": 4693,
      "어려울": 4694,
      "포함된": 4695,
      "vi": 4696,
      "##뷰": 4697,
      "##링": 4698,
      "하셔서": 4699,
      "처리를": 4700,
      "집에": 4701,
      "측정": 4702,
      "vip": 4703,
      "##벨": 4704,
      "##카ᄅ": 4705,
      "##로로": 4706,
      "때까지": 4707,
      "오늘도": 4708,
      "살게요": 4709,
      "기념품": 4710,
      "트레이": 4711,
      "있다는": 4712,
      "고객님을": 4713,
      "할인됩니다": 4714,
      "##러스": 4715,
      "개씩": 4716,
      "분실물은": 4717,
      "이후에": 4718,
      "귀걸이": 4719,
      "dp": 4720,
      "쇼핑에": 4721,
      "상관없이": 4722,
      "어딘가요": 4723,
      "휠체": 4724,
      "##사로": 4725,
      "##자ᄋ": 4726,
      "##프라": 4727,
      "##인과": 4728,
      "##전화": 4729,
      "그건": 4730,
      "비니": 4731,
      "우산": 4732,
      "완료되면": 4733,
      "건강검진": 4734,
      "스웨터": 4735,
      "굉장": 4736,
      "클리": 4737,
      "##찍": 4738,
      "##보장": 4739,
      "##스에": 4740,
      "##제를": 4741,
      "인쇄": 4742,
      "재료": 4743,
      "의상": 4744,
      "초진": 4745,
      "레드": 4746,
      "예약자": 4747,
      "등록증": 4748,
      "수수료가": 4749,
      "출입구": 4750,
      "전송해": 4751,
      "기억이": 4752,
      "##ᆻ다는": 4753,
      "오류": 4754,
      "##성년": 4755,
      "않아요": 4756,
      "통증이": 4757,
      "날씨가": 4758,
      "증명서를": 4759,
      "##이신지": 4760,
      "유효기간": 4761,
      "##뇨": 4762,
      "##습": 4763,
      "오디": 4764,
      "##금이": 4765,
      "세시": 4766,
      "준비합니다": 4767,
      "목적": 4768,
      "주차장은": 4769,
      "다릅니다": 4770,
      "망": 4771,
      "##ᆯ려": 4772,
      "전자": 4773,
      "접수된": 4774,
      "##졌는데": 4775,
      "로봇이네": 4776,
      "창구를": 4777,
      "드시고": 4778,
      "결제해도": 4779,
      "부스에서": 4780,
      "어쩌": 4781,
      "텐": 4782,
      "값": 4783,
      "거면": 4784,
      "사이트": 4785,
      "엄마": 4786,
      "순서가": 4787,
      "끊어": 4788,
      "찜": 4789,
      "##주의": 4790,
      "해줘요": 4791,
      "볶": 4792,
      "##매장": 4793,
      "##과에": 4794,
      "대기번호": 4795,
      "보관함": 4796,
      "표를": 4797,
      "다양하게": 4798,
      "갈색": 4799,
      "포함되어": 4800,
      "동일하게": 4801,
      "탐색합니다": 4802,
      "프런트에서": 4803,
      "되십시오": 4804,
      "쟁": 4805,
      "옷들": 4806,
      "그게": 4807,
      "준비해야": 4808,
      "의심": 4809,
      "지원이": 4810,
      "화장실에": 4811,
      "사회보장": 4812,
      "##ᆲ은": 4813,
      "도와주실래요": 4814,
      "개가": 4815,
      "바지가": 4816,
      "겨울에": 4817,
      "긴급": 4818,
      "8월": 4819,
      "수유": 4820,
      "##분들": 4821,
      "보관하고": 4822,
      "종이에": 4823,
      "와이파": 4824,
      "계약서": 4825,
      "##봄": 4826,
      "##화폐": 4827,
      "방역": 4828,
      "해주나요": 4829,
      "가격대가": 4830,
      "정해져": 4831,
      "읽": 4832,
      "오겠습니다": 4833,
      "보는": 4834,
      "조심": 4835,
      "이벤트인가요": 4836,
      "노인": 4837,
      "내용이": 4838,
      "발급받으신": 4839,
      "##안내": 4840,
      "생년월일": 4841,
      "##하다가": 4842,
      "고객센터": 4843,
      "직진": 4844,
      "가져다주실래요": 4845,
      "##탑": 4846,
      "보이시는": 4847,
      "예약했어요": 4848,
      "다녀와": 4849,
      "순서대로": 4850,
      "qr코드를": 4851,
      "아홉": 4852,
      "정부": 4853,
      "##골": 4854,
      "수제": 4855,
      "주문한": 4856,
      "개월": 4857,
      "분실물이": 4858,
      "확실": 4859,
      "자율": 4860,
      "마네킹이": 4861,
      "사는": 4862,
      "지역화폐": 4863,
      "다운로드": 4864,
      "스커트": 4865,
      "##첩": 4866,
      "가스": 4867,
      "예약해야": 4868,
      "이용을": 4869,
      "배우": 4870,
      "미성년": 4871,
      "##단계": 4872,
      "설명을": 4873,
      "산모": 4874,
      "움직이": 4875,
      "이어지는": 4876,
      "시즌오프": 4877,
      "마시고": 4878,
      "버터": 4879,
      "수선실에": 4880,
      "후드티는": 4881,
      "어쩔": 4882,
      "내려가시면": 4883,
      "지난주에": 4884,
      "##풍": 4885,
      "수급자": 4886,
      "신체": 4887,
      "말씀드리겠습니다": 4888,
      "상품과": 4889,
      "##동산": 4890,
      "돼서": 4891,
      "숍": 4892,
      "음료를": 4893,
      "##밥이": 4894,
      "스타일을": 4895,
      "굉장히": 4896,
      "부동산": 4897,
      "##관이": 4898,
      "포획": 4899,
      "해주는": 4900,
      "적용해": 4901,
      "카카오페이": 4902,
      "##균": 4903,
      "매장의": 4904,
      "##절이": 4905,
      "주문할": 4906,
      "금지": 4907,
      "벌써": 4908,
      "부서로": 4909,
      "2인": 4910,
      "36": 4911,
      "어두": 4912,
      "이거랑": 4913,
      "스태": 4914,
      "끝난": 4915,
      "보건증": 4916,
      "슬ᄅ": 4917,
      "훼": 4918,
      "우체": 4919,
      "종합": 4920,
      "엘리베이터는": 4921,
      "엘리베이터가": 4922,
      "설치되어": 4923,
      "가져오면": 4924,
      "처방전을": 4925,
      "수량이": 4926,
      "고마워요": 4927,
      "명하": 4928,
      "줘": 4929,
      "차이가": 4930,
      "뭐라고": 4931,
      "범": 4932,
      "약간": 4933,
      "입점": 4934,
      "부가": 4935,
      "수선해야": 4936,
      "##복은": 4937,
      "실내": 4938,
      "부스는": 4939,
      "전화번호를": 4940,
      "박물관": 4941,
      "핑크색": 4942,
      "시그": 4943,
      "거라서": 4944,
      "전산": 4945,
      "분위": 4946,
      "일회": 4947,
      "위치로": 4948,
      "앞치": 4949,
      "번호표부터": 4950,
      "스마트": 4951,
      "편에": 4952,
      "옆에서": 4953,
      "받았습니다": 4954,
      "티셔츠가": 4955,
      "부모님": 4956,
      "시그니": 4957,
      "개만": 4958,
      "수납할": 4959,
      "나올": 4960,
      "신기한": 4961,
      "작품이": 4962,
      "룸이": 4963,
      "평소": 4964,
      "머리": 4965,
      "길이가": 4966,
      "고르신": 4967,
      "은행": 4968,
      "시그니처": 4969,
      "##78": 4970,
      "주워": 4971,
      "##지로": 4972,
      "원하신다면": 4973,
      "사이즈의": 4974,
      "등록된": 4975,
      "##석에": 4976,
      "벌까지": 4977,
      "리뷰": 4978,
      "밤": 4979,
      "##냐": 4980,
      "가벼": 4981,
      "확인서를": 4982,
      "##선생님": 4983,
      "그쪽으로": 4984,
      "적용되어": 4985,
      "전시회는": 4986,
      "근방": 4987,
      "받아볼": 4988,
      "입구로": 4989,
      "기재되어": 4990,
      "기계에서": 4991,
      "주차권을": 4992,
      "좋겠는데": 4993,
      "##있어요": 4994,
      "고객님들": 4995,
      "세탁": 4996,
      "작업": 4997,
      "진료예약": 4998,
      "반입": 4999,
      "주소는": 5000,
      "브랜드는": 5001,
      "전부입니다": 5002,
      "의사선생님": 5003,
      "하나랑": 5004,
      "아디다스": 5005,
      "훼손": 5006,
      "##ᆻ어": 5007,
      "핫": 5008,
      "구매하는": 5009,
      "들어가서": 5010,
      "적용되나요": 5011,
      "적립도": 5012,
      "150": 5013,
      "올리면": 5014,
      "클": 5015,
      "##꼬": 5016,
      "##하세요": 5017,
      "고기": 5018,
      "##금을": 5019,
      "할인도": 5020,
      "받으려면": 5021,
      "의무": 5022,
      "##이라면": 5023,
      "게시": 5024,
      "금액을": 5025,
      "증상은": 5026,
      "아무리": 5027,
      "쇼핑백에": 5028,
      "알려줄래요": 5029,
      "화면에": 5030,
      "45": 5031,
      "##ᆨ정": 5032,
      "시행": 5033,
      "걱정": 5034,
      "재고도": 5035,
      "문진": 5036,
      "환자가": 5037,
      "음식을": 5038,
      "처음인데": 5039,
      "패딩을": 5040,
      "궁금하신": 5041,
      "플래": 5042,
      "##셜": 5043,
      "마침": 5044,
      "구경하": 5045,
      "들었습니다": 5046,
      "제공되는": 5047,
      "폐업": 5048,
      "제외한": 5049,
      "##상품권": 5050,
      "5번": 5051,
      "##틀": 5052,
      "경과": 5053,
      "##래도": 5054,
      "괜찮네요": 5055,
      "시원한": 5056,
      "##악": 5057,
      "지점": 5058,
      "접수할": 5059,
      "접수하실": 5060,
      "방식": 5061,
      "일찍": 5062,
      "소스": 5063,
      "소파": 5064,
      "실수": 5065,
      "완료되셨습니다": 5066,
      "수선실은": 5067,
      "걸리나요": 5068,
      "길을": 5069,
      "트레이닝": 5070,
      "끈": 5071,
      "폭": 5072,
      "##10": 5073,
      "시로": 5074,
      "맞추": 5075,
      "배너": 5076,
      "적용된": 5077,
      "계산대": 5078,
      "올려": 5079,
      "쓰여있는": 5080,
      "할인행사": 5081,
      "##자라": 5082,
      "했어요": 5083,
      "상품만": 5084,
      "단위": 5085,
      "거울은": 5086,
      "아웃렛": 5087,
      "44": 5088,
      "하단에": 5089,
      "마카ᄅ": 5090,
      "사용해": 5091,
      "되었습니다": 5092,
      "테니까": 5093,
      "일행이": 5094,
      "마카롱": 5095,
      "인적": 5096,
      "맵": 5097,
      "힘드": 5098,
      "원활한": 5099,
      "##냉": 5100,
      "##시키": 5101,
      "##데스크": 5102,
      "경우는": 5103,
      "더우": 5104,
      "이루어": 5105,
      "패션": 5106,
      "벗": 5107,
      "임대차": 5108,
      "통신사": 5109,
      "끼": 5110,
      "레이": 5111,
      "##하네": 5112,
      "분류": 5113,
      "##키니": 5114,
      "그래서": 5115,
      "해줄래요": 5116,
      "한잔": 5117,
      "등이": 5118,
      "통해서": 5119,
      "오픈한": 5120,
      "빈자리": 5121,
      "떡볶이": 5122,
      "3인분": 5123,
      "##ᅮᆯ렛": 5124,
      "옮": 5125,
      "피카": 5126,
      "안내드립니다": 5127,
      "찾는": 5128,
      "등을": 5129,
      "주소지": 5130,
      "쉴": 5131,
      "밖에서": 5132,
      "파우치를": 5133,
      "앞접시": 5134,
      "입니다": 5135,
      "어머니": 5136,
      "고양": 5137,
      "그쪽": 5138,
      "비키니": 5139,
      "못했": 5140,
      "파스ᄐ": 5141,
      "커버": 5142,
      "가방이": 5143,
      "프린": 5144,
      "다리가": 5145,
      "우체국": 5146,
      "##드랑": 5147,
      "##하거나": 5148,
      "작성하고": 5149,
      "낮": 5150,
      "쇼핑센터": 5151,
      "##배송": 5152,
      "데스크는": 5153,
      "캐주": 5154,
      "저거": 5155,
      "도수": 5156,
      "입장을": 5157,
      "##점검": 5158,
      "금액의": 5159,
      "올해": 5160,
      "상품권을": 5161,
      "끝났나요": 5162,
      "찢어진": 5163,
      "##친구": 5164,
      "##해진": 5165,
      "##리지": 5166,
      "경찰": 5167,
      "찾으실": 5168,
      "통지": 5169,
      "##민원": 5170,
      "리더기에": 5171,
      "이야기": 5172,
      "일회용": 5173,
      "압": 5174,
      "보다": 5175,
      "신청하고": 5176,
      "팀": 5177,
      "배출": 5178,
      "작성하셔야": 5179,
      "##두고": 5180,
      "옷걸이에": 5181,
      "보입니다": 5182,
      "조건": 5183,
      "부착": 5184,
      "분할": 5185,
      "추천드리겠습니다": 5186,
      "메뉴에": 5187,
      "참여하려면": 5188,
      "아무래도": 5189,
      "촬영이": 5190,
      "볶음": 5191,
      "##빡": 5192,
      "가주시면": 5193,
      "##곤": 5194,
      "해보고": 5195,
      "여기도": 5196,
      "옷들이": 5197,
      "사용하시면": 5198,
      "방문하셔서": 5199,
      "##겠다": 5200,
      "찍고": 5201,
      "신발은": 5202,
      "구역에": 5203,
      "현대카드로": 5204,
      "운영하는": 5205,
      "느낌": 5206,
      "a동": 5207,
      "##굴": 5208,
      "##하시려면": 5209,
      "해드리고": 5210,
      "예약했습니다": 5211,
      "예약했": 5212,
      "알레": 5213,
      "대기해야": 5214,
      "##생활": 5215,
      "분실물로": 5216,
      "에코": 5217,
      "알려줘요": 5218,
      "적혀있는데": 5219,
      "여부는": 5220,
      "부스가": 5221,
      "알레르": 5222,
      "요청하시면": 5223,
      "조사": 5224,
      "영문": 5225,
      "입장은": 5226,
      "선글": 5227,
      "##ᆯ링": 5228,
      "이동하시면": 5229,
      "허리가": 5230,
      "용어가": 5231,
      "핸드폰을": 5232,
      "칸이": 5233,
      "위해서는": 5234,
      "##귀": 5235,
      "##빠": 5236,
      "가축": 5237,
      "짐이": 5238,
      "되시길": 5239,
      "약은": 5240,
      "입원": 5241,
      "점이": 5242,
      "입구가": 5243,
      "가져와야": 5244,
      "이벤트라고": 5245,
      "1회": 5246,
      "승": 5247,
      "확인은": 5248,
      "##광": 5249,
      "부탁해요": 5250,
      "안내해드리겠습니다": 5251,
      "반려": 5252,
      "##셨던": 5253,
      "동의서": 5254,
      "##으라고": 5255,
      "##다섯": 5256,
      "##수록": 5257,
      "##가스": 5258,
      "##릿": 5259,
      "##자에게": 5260,
      "준다는": 5261,
      "##시간이": 5262,
      "적립해": 5263,
      "아이스크림": 5264,
      "일정이": 5265,
      "대기시간은": 5266,
      "깜짝": 5267,
      "##시다가": 5268,
      "##가락": 5269,
      "제3": 5270,
      "보상": 5271,
      "신청한": 5272,
      "바구니": 5273,
      "추가해": 5274,
      "나가시면": 5275,
      "싼": 5276,
      "페": 5277,
      "지방": 5278,
      "결제하는": 5279,
      "적당": 5280,
      "입장할": 5281,
      "지원됩니다": 5282,
      "##틱": 5283,
      "달에": 5284,
      "브랜드가": 5285,
      "키오스크를": 5286,
      "걸릴": 5287,
      "좋겠네요": 5288,
      "경우에만": 5289,
      "필요하다고": 5290,
      "##스러운": 5291,
      "캐주얼": 5292,
      "블로": 5293,
      "##서비스": 5294,
      "주문하겠습니다": 5295,
      "배달": 5296,
      "비워": 5297,
      "등록이": 5298,
      "##음료": 5299,
      "앉으시면": 5300,
      "국외": 5301,
      "레몬": 5302,
      "##하셨던": 5303,
      "시킬": 5304,
      "와이셔츠": 5305,
      "28": 5306,
      "수저": 5307,
      "##ᅦᆫ치": 5308,
      "대단": 5309,
      "##물이": 5310,
      "##무원": 5311,
      "##버지": 5312,
      "부분만": 5313,
      "데스크로": 5314,
      "검색해": 5315,
      "1인당": 5316,
      "이곳에": 5317,
      "모데": 5318,
      "세팅": 5319,
      "이거는": 5320,
      "미만": 5321,
      "둘러봐도": 5322,
      "주차장이": 5323,
      "기능성": 5324,
      "왔을": 5325,
      "환불이": 5326,
      "깜빡": 5327,
      "피카소": 5328,
      "7일": 5329,
      "##싱": 5330,
      "##원에서": 5331,
      "등기": 5332,
      "코트를": 5333,
      "좋을까요": 5334,
      "테이크": 5335,
      "특정": 5336,
      "색상도": 5337,
      "뼈": 5338,
      "##턴": 5339,
      "인정": 5340,
      "별관": 5341,
      "과일": 5342,
      "리필": 5343,
      "할인쿠폰을": 5344,
      "취득세": 5345,
      "##스럽": 5346,
      "##셉": 5347,
      "음식은": 5348,
      "진열돼": 5349,
      "되어있는데": 5350,
      "길어서": 5351,
      "까먹": 5352,
      "앉을게요": 5353,
      "가디건": 5354,
      "보시고": 5355,
      "##과의": 5356,
      "두겠습니다": 5357,
      "빅": 5358,
      "사용은": 5359,
      "패딩이": 5360,
      "업무는": 5361,
      "환불은": 5362,
      "플러스": 5363,
      "무엇이": 5364,
      "듣고": 5365,
      "마리": 5366,
      "트": 5367,
      "##쇠": 5368,
      "##드러": 5369,
      "거랑": 5370,
      "동생": 5371,
      "##비를": 5372,
      "것입니다": 5373,
      "명품": 5374,
      "육": 5375,
      "실업": 5376,
      "실패": 5377,
      "이상의": 5378,
      "교정": 5379,
      "열쇠": 5380,
      "레스토랑은": 5381,
      "##똑": 5382,
      "##이를": 5383,
      "드리면": 5384,
      "보여주실래요": 5385,
      "티셔츠를": 5386,
      "똑똑": 5387,
      "최근에": 5388,
      "숙": 5389,
      "거리가": 5390,
      "##된다고": 5391,
      "방문하시면": 5392,
      "대기실에": 5393,
      "데나": 5394,
      "가을맞이": 5395,
      "물어볼게요": 5396,
      "스캐": 5397,
      "봉투": 5398,
      "팝업": 5399,
      "앞치마": 5400,
      "##수는": 5401,
      "없나": 5402,
      "##이라도": 5403,
      "파티": 5404,
      "당연": 5405,
      "내용에": 5406,
      "쓰나요": 5407,
      "발급받고": 5408,
      "포장도": 5409,
      "##충": 5410,
      "소지품": 5411,
      "시럽": 5412,
      "하네": 5413,
      "돋": 5414,
      "구분": 5415,
      "##드에": 5416,
      "구매하겠습니다": 5417,
      "같던데": 5418,
      "공무원": 5419,
      "여권을": 5420,
      "보험사": 5421,
      "쏘": 5422,
      "무늬": 5423,
      "좋아서": 5424,
      "시작됩니다": 5425,
      "만나": 5426,
      "갈아입": 5427,
      "26": 5428,
      "아ᄋ": 5429,
      "족": 5430,
      "작동": 5431,
      "티켓의": 5432,
      "방문하신": 5433,
      "증정하고": 5434,
      "주민등록번호": 5435,
      "궁금한데": 5436,
      "기능이": 5437,
      "건강보험": 5438,
      "휠체어": 5439,
      "아트": 5440,
      "##의류": 5441,
      "진행될": 5442,
      "가져올게요": 5443,
      "농업": 5444,
      "굿즈를": 5445,
      "에스컬레이터를": 5446,
      "재난지원금": 5447,
      "소개해": 5448,
      "##드름": 5449,
      "##로도": 5450,
      "염": 5451,
      "보장": 5452,
      "고구": 5453,
      "사정": 5454,
      "모양": 5455,
      "접수창구": 5456,
      "주문하고": 5457,
      "해당되는": 5458,
      "두꺼": 5459,
      "##방법": 5460,
      "어렵네요": 5461,
      "사람들": 5462,
      "##모데": 5463,
      "가져다주실": 5464,
      "목록": 5465,
      "중이오니": 5466,
      "진료비가": 5467,
      "됩니까": 5468,
      "여유": 5469,
      "착용이": 5470,
      "중이며": 5471,
      "귀여": 5472,
      "래시가": 5473,
      "수집": 5474,
      "구매하시는": 5475,
      "대기하면": 5476,
      "도와드릴게요": 5477,
      "받아보실": 5478,
      "남았습니다": 5479,
      "할부가": 5480,
      "피부과": 5481,
      "똑같은": 5482,
      "루프": 5483,
      "##끔": 5484,
      "정보도": 5485,
      "##수육": 5486,
      "수리": 5487,
      "여드름": 5488,
      "전시실": 5489,
      "행거": 5490,
      "주소와": 5491,
      "떨어ᄄ": 5492,
      "다녀올게요": 5493,
      "##자료": 5494,
      "이혼": 5495,
      "##사본": 5496,
      "곱": 5497,
      "민원신청": 5498,
      "##있나요": 5499,
      "행사에": 5500,
      "##란에": 5501,
      "내역이": 5502,
      "##받았는데": 5503,
      "한복을": 5504,
      "뜻합니다": 5505,
      "상세히": 5506,
      "남겨주시면": 5507,
      "플리": 5508,
      "##ᆻ더니": 5509,
      "했던": 5510,
      "졸": 5511,
      "한다던데": 5512,
      "진행할": 5513,
      "두벌": 5514,
      "불고기": 5515,
      "뽑으면": 5516,
      "모르는데": 5517,
      "탑": 5518,
      "빼고": 5519,
      "쟁반": 5520,
      "루프탑": 5521,
      "##ᅡ워": 5522,
      "하셔도": 5523,
      "받나요": 5524,
      "추가해서": 5525,
      "나왔나요": 5526,
      "신기해": 5527,
      "파자": 5528,
      "가능하나": 5529,
      "김지": 5530,
      "포장은": 5531,
      "맡길": 5532,
      "면허증": 5533,
      "##잖아": 5534,
      "카메라": 5535,
      "자율점검": 5536,
      "##다음": 5537,
      "오프라": 5538,
      "결재": 5539,
      "몸이": 5540,
      "와이드": 5541,
      "무지": 5542,
      "연장": 5543,
      "##윈": 5544,
      "지하주차": 5545,
      "버려주세요": 5546,
      "컴": 5547,
      "##사와": 5548,
      "상속": 5549,
      "입양": 5550,
      "상품들이": 5551,
      "##관람": 5552,
      "추가적으로": 5553,
      "적용은": 5554,
      "적용되고": 5555,
      "제공되지": 5556,
      "신고를": 5557,
      "커플ᄅ": 5558,
      "괜찮나요": 5559,
      "허니": 5560,
      "날짜와": 5561,
      "남아있나요": 5562,
      "커플룩": 5563,
      "주방": 5564,
      "없다고": 5565,
      "중간": 5566,
      "말씀드려": 5567,
      "주문하실": 5568,
      "빛": 5569,
      "##핏": 5570,
      "먹으면": 5571,
      "##번호는": 5572,
      "금액으로": 5573,
      "붙여": 5574,
      "지갑이": 5575,
      "이메": 5576,
      "##장은": 5577,
      "인상": 5578,
      "인형": 5579,
      "만큼": 5580,
      "선물용": 5581,
      "룸은": 5582,
      "입장권을": 5583,
      "민원실에서": 5584,
      "재입고": 5585,
      "##확": 5586,
      "주고": 5587,
      "##을게요": 5588,
      "고지": 5589,
      "안내데스크": 5590,
      "##으셔야": 5591,
      "##털": 5592,
      "약국입니다": 5593,
      "검토": 5594,
      "통로": 5595,
      "어렵": 5596,
      "버스": 5597,
      "타이": 5598,
      "딸기": 5599,
      "베": 5600,
      "##튀": 5601,
      "##이시면": 5602,
      "주까지": 5603,
      "해산": 5604,
      "보육": 5605,
      "고무": 5606,
      "필라": 5607,
      "민원인": 5608,
      "생긴": 5609,
      "복수": 5610,
      "##주시는": 5611,
      "조회를": 5612,
      "##더라도": 5613,
      "벌을": 5614,
      "기다리는": 5615,
      "있었던": 5616,
      "비치된": 5617,
      "권장": 5618,
      "배치되어": 5619,
      "도슨트": 5620,
      "예약해서": 5621,
      "기네요": 5622,
      "도와줄": 5623,
      "##달라고": 5624,
      "부부": 5625,
      "대기하고": 5626,
      "포상": 5627,
      "저기서": 5628,
      "##카드를": 5629,
      "드신": 5630,
      "센터는": 5631,
      "놓인": 5632,
      "붙어있는": 5633,
      "밝은": 5634,
      "더욱": 5635,
      "제조": 5636,
      "하늘": 5637,
      "##소는": 5638,
      "약국의": 5639,
      "테이블은": 5640,
      "##돼서": 5641,
      "알았는데": 5642,
      "뽑았는데": 5643,
      "탕수육": 5644,
      "정보와": 5645,
      "##기준": 5646,
      "##장으로": 5647,
      "추워": 5648,
      "분명": 5649,
      "신청서도": 5650,
      "준비해서": 5651,
      "##협": 5652,
      "진열된": 5653,
      "구경해": 5654,
      "브런": 5655,
      "크리": 5656,
      "공지": 5657,
      "공휴": 5658,
      "쇼핑이": 5659,
      "앤": 5660,
      "선착순으로": 5661,
      "정형외과": 5662,
      "스탬": 5663,
      "당연히": 5664,
      "27": 5665,
      "흑": 5666,
      "##하니": 5667,
      "##로만": 5668,
      "동네": 5669,
      "입다가": 5670,
      "피팅은": 5671,
      "하나도": 5672,
      "침": 5673,
      "치수": 5674,
      "둘러보십시오": 5675,
      "잠옷을": 5676,
      "스무디": 5677,
      "있다": 5678,
      "중단": 5679,
      "상품이라": 5680,
      "접수해야": 5681,
      "보여주시겠어요": 5682,
      "##봐서": 5683,
      "프린트": 5684,
      "있다는데": 5685,
      "조절": 5686,
      "수납하실": 5687,
      "카페에서": 5688,
      "괜찮은데": 5689,
      "삼성페이": 5690,
      "확정": 5691,
      "졸업": 5692,
      "나요": 5693,
      "갔는데": 5694,
      "##거울": 5695,
      "한하여": 5696,
      "준다는데": 5697,
      "있으니까": 5698,
      "제공하지": 5699,
      "음료가": 5700,
      "부분은": 5701,
      "혜택은": 5702,
      "##질이": 5703,
      "되네요": 5704,
      "##님이": 5705,
      "한시": 5706,
      "구매에": 5707,
      "화려": 5708,
      "명으로": 5709,
      "공공": 5710,
      "놀이": 5711,
      "뽑으신": 5712,
      "처리하는": 5713,
      "단말": 5714,
      "버려": 5715,
      "사항에": 5716,
      "대기인원이": 5717,
      "에이드": 5718,
      "에코백": 5719,
      "5층에": 5720,
      "브로": 5721,
      "##에만": 5722,
      "하다니": 5723,
      "하더라고요": 5724,
      "호피": 5725,
      "택에": 5726,
      "3층에서": 5727,
      "토핑": 5728,
      "##ᆻ으니": 5729,
      "신용카드로": 5730,
      "브런치": 5731,
      "17": 5732,
      "##몽": 5733,
      "있사오니": 5734,
      "전단": 5735,
      "후기를": 5736,
      "경력": 5737,
      "문의에": 5738,
      "##ᅡ웃": 5739,
      "혼잡": 5740,
      "야채": 5741,
      "동일합니다": 5742,
      "돋보": 5743,
      "정식": 5744,
      "가세요": 5745,
      "싫": 5746,
      "##사진": 5747,
      "말씀하시면": 5748,
      "왔네요": 5749,
      "미니": 5750,
      "의도를": 5751,
      "됐네요": 5752,
      "교환이나": 5753,
      "물어보면": 5754,
      "찍어도": 5755,
      "밖으로": 5756,
      "뒷자리": 5757,
      "블로그": 5758,
      "실패했습니다": 5759,
      "##시다면": 5760,
      "##려서": 5761,
      "메시": 5762,
      "자녀": 5763,
      "##복도": 5764,
      "가격에서": 5765,
      "가져다드리도록": 5766,
      "센터를": 5767,
      "특이": 5768,
      "##했네요": 5769,
      "새롭게": 5770,
      "##없이": 5771,
      "보유하고": 5772,
      "##ᆻ네": 5773,
      "##콘": 5774,
      "전신": 5775,
      "##빔": 5776,
      "중요": 5777,
      "##명이": 5778,
      "서류도": 5779,
      "##세트": 5780,
      "들어가나요": 5781,
      "곳을": 5782,
      "##코트": 5783,
      "모르는": 5784,
      "음식물": 5785,
      "아닌데": 5786,
      "급하게": 5787,
      "홈페이지를": 5788,
      "자연": 5789,
      "신발을": 5790,
      "네이비색": 5791,
      "사회보장급여": 5792,
      "힘드네요": 5793,
      "##땡": 5794,
      "##로우": 5795,
      "해준": 5796,
      "기관": 5797,
      "##일까지": 5798,
      "중에서는": 5799,
      "고객님에": 5800,
      "신청인": 5801,
      "않으면": 5802,
      "문의하시기": 5803,
      "제공하는": 5804,
      "색이": 5805,
      "불가한": 5806,
      "담당하고": 5807,
      "초대": 5808,
      "리모데": 5809,
      "잠깐만": 5810,
      "아픈데": 5811,
      "오디오": 5812,
      "리모델링": 5813,
      "##갈": 5814,
      "가능하면": 5815,
      "한글": 5816,
      "이벤트와": 5817,
      "##진료": 5818,
      "지원받을": 5819,
      "명확": 5820,
      "결과는": 5821,
      "아이스티": 5822,
      "종료된": 5823,
      "꺼내": 5824,
      "오프라인": 5825,
      "땡": 5826,
      "##ᇁ밥": 5827,
      "이비": 5828,
      "##인후": 5829,
      "##하시나요": 5830,
      "대량": 5831,
      "입는": 5832,
      "몸": 5833,
      "맞으면": 5834,
      "##졌네요": 5835,
      "사이즈만": 5836,
      "스페": 5837,
      "무료배송": 5838,
      "있으신": 5839,
      "실제": 5840,
      "관람하고": 5841,
      "간호": 5842,
      "칸에는": 5843,
      "하려면": 5844,
      "데려다": 5845,
      "이비인후": 5846,
      "##클": 5847,
      "주ᄎ": 5848,
      "예약되나요": 5849,
      "##표가": 5850,
      "로봇이라": 5851,
      "주신다고": 5852,
      "손상": 5853,
      "이해가": 5854,
      "야간": 5855,
      "치료를": 5856,
      "발권해": 5857,
      "따뜻": 5858,
      "팸플릿을": 5859,
      "데이": 5860,
      "##마를": 5861,
      "조용": 5862,
      "##라던데": 5863,
      "시간까지": 5864,
      "전시회에": 5865,
      "병원이": 5866,
      "토지": 5867,
      "19": 5868,
      "정문": 5869,
      "있다니": 5870,
      "안돼요": 5871,
      "거야": 5872,
      "오렌": 5873,
      "마쳐": 5874,
      "부적": 5875,
      "재질": 5876,
      "작성해서": 5877,
      "티켓에": 5878,
      "곳인가요": 5879,
      "목도리를": 5880,
      "증명할": 5881,
      "떠": 5882,
      "시청": 5883,
      "안내도": 5884,
      "##성이": 5885,
      "##관은": 5886,
      "배송비는": 5887,
      "명인데": 5888,
      "있으실": 5889,
      "처리됩니다": 5890,
      "알려드립니다": 5891,
      "꿈": 5892,
      "덜": 5893,
      "##시경": 5894,
      "##시켜": 5895,
      "신메뉴": 5896,
      "말이": 5897,
      "작성하여": 5898,
      "민트": 5899,
      "##모션": 5900,
      "이용해도": 5901,
      "나오면": 5902,
      "써져": 5903,
      "패딩은": 5904,
      "산부": 5905,
      "제한이": 5906,
      "몰라서요": 5907,
      "##보시면": 5908,
      "가나요": 5909,
      "해드려": 5910,
      "안내합니다": 5911,
      "대박이": 5912,
      "통원": 5913,
      "공원": 5914,
      "로봇을": 5915,
      "프로모션": 5916,
      "1일": 5917,
      "##으로만": 5918,
      "네시": 5919,
      "신청하시면": 5920,
      "제품과": 5921,
      "받아서": 5922,
      "옷의": 5923,
      "중인데": 5924,
      "##길동": 5925,
      "적어주세요": 5926,
      "변경하": 5927,
      "파악이": 5928,
      "아무도": 5929,
      "앱으로": 5930,
      "77": 5931,
      "95": 5932,
      "맥": 5933,
      "가신": 5934,
      "구매하려는데": 5935,
      "개를": 5936,
      "세일가": 5937,
      "옷들을": 5938,
      "다르게": 5939,
      "지원하고": 5940,
      "얼굴": 5941,
      "룸으로": 5942,
      "카디건은": 5943,
      "통장사본": 5944,
      "권해": 5945,
      "튀김": 5946,
      "스페셜": 5947,
      "송": 5948,
      "##죄": 5949,
      "##0사이즈": 5950,
      "##되는데": 5951,
      "예약해도": 5952,
      "드린": 5953,
      "받으려고": 5954,
      "선정": 5955,
      "수납기": 5956,
      "찍을": 5957,
      "셔츠를": 5958,
      "인증을": 5959,
      "쇼핑백은": 5960,
      "뜻이에요": 5961,
      "경찰서": 5962,
      "드레": 5963,
      "해시": 5964,
      "기ᄈ": 5965,
      "000원이며": 5966,
      "서비스입니다": 5967,
      "우유": 5968,
      "공식": 5969,
      "지원금에": 5970,
      "전화를": 5971,
      "코너는": 5972,
      "올ᄅ": 5973,
      "돌려": 5974,
      "##명하는": 5975,
      "어쩌죠": 5976,
      "옮겨": 5977,
      "수신": 5978,
      "##주년": 5979,
      "오실": 5980,
      "보시는": 5981,
      "피팅을": 5982,
      "이용하면": 5983,
      "자택": 5984,
      "적용되지": 5985,
      "뽀로로": 5986,
      "점검": 5987,
      "겨울용": 5988,
      "있어도": 5989,
      "있었는데": 5990,
      "놓아": 5991,
      "블라우스는": 5992,
      "돈가스": 5993,
      "글씨가": 5994,
      "##으시다면": 5995,
      "테니스": 5996,
      "게이": 5997,
      "시ᄁ": 5998,
      "되겠죠": 5999,
      "##한다던데": 6000,
      "##됐습니다": 6001,
      "보낼": 6002,
      "표기": 6003,
      "컬러로": 6004,
      "내역서": 6005,
      "할인된다고": 6006,
      "휴대폰을": 6007,
      "사은품을": 6008,
      "맞은편에": 6009,
      "as": 6010,
      "동행": 6011,
      "##금은": 6012,
      "신청하실": 6013,
      "소스는": 6014,
      "##콤": 6015,
      "2층에서": 6016,
      "지난번": 6017,
      "재밌네요": 6018,
      "규정": 6019,
      "사이다": 6020,
      "스캔": 6021,
      "010": 6022,
      "적은": 6023,
      "차감": 6024,
      "유행": 6025,
      "##넛": 6026,
      "##했을": 6027,
      "넓어서": 6028,
      "선생님께": 6029,
      "친절히": 6030,
      "##전시실": 6031,
      "정수기": 6032,
      "##사업": 6033,
      "500": 6034,
      "##ᆷ터": 6035,
      "시에서": 6036,
      "##약을": 6037,
      "전이": 6038,
      "어딨는지": 6039,
      "경영": 6040,
      "영주": 6041,
      "신고는": 6042,
      "종류에": 6043,
      "건물의": 6044,
      "발급받은": 6045,
      "팔아요": 6046,
      "태블": 6047,
      "확실히": 6048,
      "이체": 6049,
      "##문화": 6050,
      "예시": 6051,
      "구이": 6052,
      "##만큼": 6053,
      "죄송해요": 6054,
      "개까지": 6055,
      "계열": 6056,
      "됐어요": 6057,
      "가능하시며": 6058,
      "신분증명서": 6059,
      "화장실에서": 6060,
      "체크해야": 6061,
      "층으로": 6062,
      "풍": 6063,
      "음성을": 6064,
      "사인회": 6065,
      "##ᆸ지만": 6066,
      "죽": 6067,
      "발급됩니다": 6068,
      "지원하지": 6069,
      "보여서": 6070,
      "저기에": 6071,
      "##석으로": 6072,
      "들어오세요": 6073,
      "현장에서": 6074,
      "없으니": 6075,
      "빈칸": 6076,
      "볶음밥": 6077,
      "태블릿": 6078,
      "하ᄋ": 6079,
      "##사의": 6080,
      "##아웃": 6081,
      "아시나요": 6082,
      "보시길": 6083,
      "접수증": 6084,
      "차가": 6085,
      "믿": 6086,
      "공개": 6087,
      "유아": 6088,
      "참고하여": 6089,
      "부분에": 6090,
      "인감증명서": 6091,
      "신용카드": 6092,
      "바닥": 6093,
      "마요": 6094,
      "뵈": 6095,
      "차ᄋ": 6096,
      "##벅": 6097,
      "##략": 6098,
      "익": 6099,
      "##하다": 6100,
      "지문": 6101,
      "요구": 6102,
      "거리": 6103,
      "중에는": 6104,
      "할인율": 6105,
      "발급기": 6106,
      "낫": 6107,
      "##셨으면": 6108,
      "니ᄐ": 6109,
      "색상을": 6110,
      "살고": 6111,
      "왼편에": 6112,
      "과정": 6113,
      "이후로": 6114,
      "마감되었습니다": 6115,
      "기념으로": 6116,
      "품목을": 6117,
      "문화상품권": 6118,
      "텀블러를": 6119,
      "초등학생": 6120,
      "65": 6121,
      "지연": 6122,
      "##실을": 6123,
      "진통": 6124,
      "도와줄래요": 6125,
      "##옷이": 6126,
      "맞아": 6127,
      "두통": 6128,
      "자몽": 6129,
      "##봤는데": 6130,
      "선물포": 6131,
      "초과": 6132,
      "특별히": 6133,
      "정수기가": 6134,
      "달라집니다": 6135,
      "##되었으며": 6136,
      "비닐": 6137,
      "수거": 6138,
      "##되십니다": 6139,
      "부위": 6140,
      "이용하려고": 6141,
      "##소에": 6142,
      "입어보려고": 6143,
      "불러드리겠습니다": 6144,
      "보내드리겠습니다": 6145,
      "궁금해요": 6146,
      "예뻐": 6147,
      "농협": 6148,
      "뜻인가요": 6149,
      "해시태": 6150,
      "##케이": 6151,
      "질문이": 6152,
      "엽": 6153,
      "신어보": 6154,
      "예약확인": 6155,
      "할인받으실": 6156,
      "구매하려": 6157,
      "##대요": 6158,
      "##들과": 6159,
      "##들렌": 6160,
      "옷들은": 6161,
      "유모": 6162,
      "하나밖에": 6163,
      "반바지": 6164,
      "특징": 6165,
      "팔고": 6166,
      "특별한": 6167,
      "맡기고": 6168,
      "세상에": 6169,
      "드레싱": 6170,
      "부드러": 6171,
      "와서요": 6172,
      "전달하겠습니다": 6173,
      "선물해": 6174,
      "품절이": 6175,
      "기재된": 6176,
      "오랜": 6177,
      "출시되었습니다": 6178,
      "룰렛": 6179,
      "##프로": 6180,
      "##수당": 6181,
      "있다가": 6182,
      "##게티": 6183,
      "해드립니다": 6184,
      "신청자": 6185,
      "##표는": 6186,
      "연예": 6187,
      "목소": 6188,
      "옷이랑": 6189,
      "홍길동": 6190,
      "기초생활": 6191,
      "브레이크": 6192,
      "하셨죠": 6193,
      "스파게티": 6194,
      "쓰레": 6195,
      "혈": 6196,
      "##ᅳ레이": 6197,
      "##지어": 6198,
      "겉": 6199,
      "전부터": 6200,
      "신청에": 6201,
      "맞이": 6202,
      "카드와": 6203,
      "만족": 6204,
      "전시관에": 6205,
      "고구마": 6206,
      "14": 6207,
      "러": 6208,
      "##프를": 6209,
      "마들렌": 6210,
      "모시": 6211,
      "분들이": 6212,
      "스토": 6213,
      "실비": 6214,
      "입구는": 6215,
      "색상의": 6216,
      "##으려고요": 6217,
      "팔리는": 6218,
      "그렇다면": 6219,
      "머신": 6220,
      "청바지가": 6221,
      "아파트": 6222,
      "##나라": 6223,
      "가셔야": 6224,
      "##어나": 6225,
      "질문의": 6226,
      "매일": 6227,
      "세트를": 6228,
      "##상의": 6229,
      "일은": 6230,
      "스키": 6231,
      "적용해서": 6232,
      "신기하고": 6233,
      "임부": 6234,
      "월세": 6235,
      "웨딩": 6236,
      "이전에": 6237,
      "존으로": 6238,
      "향이": 6239,
      "우편물": 6240,
      "놀랍네요": 6241,
      "시스템": 6242,
      "족발": 6243,
      "안에는": 6244,
      "보신": 6245,
      "대출": 6246,
      "사무": 6247,
      "결제하신": 6248,
      "구매도": 6249,
      "모습": 6250,
      "추가요": 6251,
      "##선을": 6252,
      "진행할게요": 6253,
      "그나": 6254,
      "##하면서": 6255,
      "##받으러": 6256,
      "복용": 6257,
      "신분증이랑": 6258,
      "재킷이": 6259,
      "넣어주시면": 6260,
      "비슷": 6261,
      "소진되어": 6262,
      "##베리": 6263,
      "##보다는": 6264,
      "수프": 6265,
      "제주": 6266,
      "구간": 6267,
      "얼룩": 6268,
      "문의하시면": 6269,
      "통보": 6270,
      "흉": 6271,
      "찍는": 6272,
      "벨을": 6273,
      "맵기": 6274,
      "##이기": 6275,
      "상처": 6276,
      "수선할": 6277,
      "돼지": 6278,
      "105": 6279,
      "발급받으실": 6280,
      "발급받으시면": 6281,
      "순번": 6282,
      "후드티를": 6283,
      "인증샤": 6284,
      "확진": 6285,
      "힘든": 6286,
      "일요일까지": 6287,
      "##반찬": 6288,
      "할인해서": 6289,
      "일자리": 6290,
      "건물이": 6291,
      "따라서": 6292,
      "니트는": 6293,
      "지참해": 6294,
      "지참하시면": 6295,
      "정장을": 6296,
      "웨이": 6297,
      "어울리는지": 6298,
      "보육료": 6299,
      "90": 6300,
      "저소득": 6301,
      "예약하실": 6302,
      "할인되어": 6303,
      "말씀이시": 6304,
      "세명": 6305,
      "차는": 6306,
      "전시되어": 6307,
      "다음번": 6308,
      "드나요": 6309,
      "치매": 6310,
      "조회하겠습니다": 6311,
      "관람을": 6312,
      "계산대에": 6313,
      "##탕으로": 6314,
      "관련해서는": 6315,
      "밑반찬": 6316,
      "파자마": 6317,
      "##니가": 6318,
      "##하라는데": 6319,
      "수고": 6320,
      "##라테": 6321,
      "계절": 6322,
      "약국으로는": 6323,
      "복지에": 6324,
      "간장": 6325,
      "항원": 6326,
      "높습니다": 6327,
      "트위": 6328,
      "##자랑": 6329,
      "주셔도": 6330,
      "##수급자": 6331,
      "##지와": 6332,
      "오리": 6333,
      "한다는": 6334,
      "##상에": 6335,
      "제품만": 6336,
      "연령": 6337,
      "보여서요": 6338,
      "패키": 6339,
      "대상이": 6340,
      "휴대전화": 6341,
      "메뉴판에": 6342,
      "넓네요": 6343,
      "앱을": 6344,
      "홍시": 6345,
      "관계로": 6346,
      "움직이는": 6347,
      "퇴장": 6348,
      "마라": 6349,
      "이가": 6350,
      "아이ᄐ": 6351,
      "##셨어요": 6352,
      "##부분": 6353,
      "것인지": 6354,
      "있으므로": 6355,
      "202": 6356,
      "사유에": 6357,
      "맡기면": 6358,
      "폐기해": 6359,
      "베이글": 6360,
      "편의점": 6361,
      "2xl": 6362,
      "##쌀": 6363,
      "오버": 6364,
      "##용이": 6365,
      "개는": 6366,
      "않게": 6367,
      "영어": 6368,
      "방으로": 6369,
      "반납": 6370,
      "##콜라": 6371,
      "라면": 6372,
      "앉아있": 6373,
      "본인만": 6374,
      "사은품으로": 6375,
      "멀어": 6376,
      "털": 6377,
      "##하던": 6378,
      "##지에서": 6379,
      "예전에": 6380,
      "##구에": 6381,
      "인지": 6382,
      "수선의": 6383,
      "필요하지": 6384,
      "찾아서": 6385,
      "소음": 6386,
      "##받은": 6387,
      "괜찮죠": 6388,
      "본관": 6389,
      "뜯": 6390,
      "넣고": 6391,
      "붙습니다": 6392,
      "지나가": 6393,
      "셔츠가": 6394,
      "취소해": 6395,
      "착석해": 6396,
      "탄산수": 6397,
      "독감": 6398,
      "자르": 6399,
      "마시": 6400,
      "기대": 6401,
      "결제만": 6402,
      "배송시키": 6403,
      "번호표가": 6404,
      "스ᄑ": 6405,
      "코드": 6406,
      "교체": 6407,
      "브랜드의": 6408,
      "기계에": 6409,
      "환자분": 6410,
      "줄이고": 6411,
      "대기시간이": 6412,
      "푸드": 6413,
      "아이테": 6414,
      "꾸": 6415,
      "##시지가": 6416,
      "보려면": 6417,
      "진찰": 6418,
      "어디다": 6419,
      "진료일": 6420,
      "멜론": 6421,
      "##맛": 6422,
      "##공간": 6423,
      "만료": 6424,
      "만드는": 6425,
      "당사": 6426,
      "식당은": 6427,
      "주차권은": 6428,
      "넣어주세요": 6429,
      "유니폼": 6430,
      "명이서": 6431,
      "퍼센트": 6432,
      "오랜만": 6433,
      "팩": 6434,
      "##하다니": 6435,
      "##시설이": 6436,
      "저랑": 6437,
      "마스크를": 6438,
      "모ᄃ": 6439,
      "세시에": 6440,
      "비밀": 6441,
      "수납해": 6442,
      "들어가실": 6443,
      "열다섯": 6444,
      "의류도": 6445,
      "##시간은": 6446,
      "포함한": 6447,
      "꺾": 6448,
      "실수로": 6449,
      "스탬프": 6450,
      "##클리": 6451,
      "##인트": 6452,
      "접시": 6453,
      "할아": 6454,
      "소독": 6455,
      "등급": 6456,
      "연계": 6457,
      "단어": 6458,
      "관람할": 6459,
      "받았어요": 6460,
      "담당자가": 6461,
      "적어도": 6462,
      "집에서": 6463,
      "보내주세요": 6464,
      "떨어진": 6465,
      "백신": 6466,
      "가져오신": 6467,
      "쉼터": 6468,
      "직원분께": 6469,
      "##뿐만": 6470,
      "ct": 6471,
      "##츠로": 6472,
      "말하면": 6473,
      "##구요": 6474,
      "##부로": 6475,
      "알리": 6476,
      "갤러": 6477,
      "비가": 6478,
      "사이즈와": 6479,
      "사이즈별로": 6480,
      "준비가": 6481,
      "방문해서": 6482,
      "참여하실": 6483,
      "##력이": 6484,
      "진료실에서": 6485,
      "있었어요": 6486,
      "주차장으로": 6487,
      "거울을": 6488,
      "##션이": 6489,
      "원무과": 6490,
      "땡땡": 6491,
      "##펴": 6492,
      "##하던데": 6493,
      "##왔는데": 6494,
      "마실": 6495,
      "기타": 6496,
      "인당": 6497,
      "말씀드릴게요": 6498,
      "티켓값": 6499,
      "양수": 6500,
      "완료했습니다": 6501,
      "카운터로": 6502,
      "언제부터": 6503,
      "##다면서요": 6504,
      "살펴": 6505,
      "알아들": 6506,
      "포장해서": 6507,
      "검색합니다": 6508,
      "좌측으로": 6509,
      "중복으로": 6510,
      "##레이션": 6511,
      "스티커가": 6512,
      "인스타그램에": 6513,
      "02": 6514,
      "31": 6515,
      "4층에": 6516,
      "##하나": 6517,
      "제2": 6518,
      "하시는": 6519,
      "마치": 6520,
      "제품명을": 6521,
      "주문도": 6522,
      "연청": 6523,
      "패드에": 6524,
      "정도로": 6525,
      "줄은": 6526,
      "김민": 6527,
      "기다리게": 6528,
      "할부는": 6529,
      "기준이": 6530,
      "면접": 6531,
      "생년월일은": 6532,
      "건너편": 6533,
      "고양이": 6534,
      "정보에": 6535,
      "##인을": 6536,
      "##기에는": 6537,
      "안된": 6538,
      "좁": 6539,
      "##걸리": 6540,
      "##아이": 6541,
      "결제되었습니다": 6542,
      "##맛이": 6543,
      "##동물": 6544,
      "영수증과": 6545,
      "입어보실": 6546,
      "생리": 6547,
      "##티콘": 6548,
      "카페에": 6549,
      "##플러": 6550,
      "돌봄": 6551,
      "확인서가": 6552,
      "현대카드": 6553,
      "세부내역": 6554,
      "돌아가": 6555,
      "브라운": 6556,
      "미성년자": 6557,
      "범죄": 6558,
      "컨": 6559,
      "거의": 6560,
      "##되시면": 6561,
      "마을": 6562,
      "기프": 6563,
      "도와주": 6564,
      "구매해도": 6565,
      "건의": 6566,
      "내과": 6567,
      "##함을": 6568,
      "드시는": 6569,
      "완료됩니다": 6570,
      "열어": 6571,
      "달고": 6572,
      "금액에": 6573,
      "업체": 6574,
      "##임대": 6575,
      "없으므로": 6576,
      "화면을": 6577,
      "나라에서": 6578,
      "조심히": 6579,
      "도수치료": 6580,
      "돋보기": 6581,
      "녹": 6582,
      "이외": 6583,
      "하셔야": 6584,
      "제품들이": 6585,
      "작성이": 6586,
      "서류만": 6587,
      "##크가": 6588,
      "자켓": 6589,
      "놀ᄅ": 6590,
      "열시부터": 6591,
      "##페너": 6592,
      "로봇에게": 6593,
      "찾았어요": 6594,
      "나가신": 6595,
      "지급해": 6596,
      "단체로": 6597,
      "구매하려고요": 6598,
      "머플러": 6599,
      "어떡해요": 6600,
      "라이더": 6601,
      "##둥이": 6602,
      "저번달에": 6603,
      "씨": 6604,
      "플ᄅ": 6605,
      "석": 6606,
      "없던데": 6607,
      "신청하신": 6608,
      "##ᆸ신": 6609,
      "재판": 6610,
      "추석": 6611,
      "카키": 6612,
      "##화장": 6613,
      "들어가기": 6614,
      "참여해": 6615,
      "전시회의": 6616,
      "하던데요": 6617,
      "마네킹에": 6618,
      "콜라보": 6619,
      "행거에": 6620,
      "모시겠습니다": 6621,
      "##지도": 6622,
      "안심": 6623,
      "아침": 6624,
      "조합": 6625,
      "##원에": 6626,
      "적이": 6627,
      "적으시면": 6628,
      "소유": 6629,
      "지원하는": 6630,
      "최고": 6631,
      "##조끼": 6632,
      "패딩조끼": 6633,
      "니트가": 6634,
      "돌면": 6635,
      "답답": 6636,
      "이곳은": 6637,
      "아쉽지만": 6638,
      "필수로": 6639,
      "이유가": 6640,
      "양말을": 6641,
      "에어파": 6642,
      "안경을": 6643,
      "방향으로": 6644,
      "할인가로": 6645,
      "의심됩니다": 6646,
      "전입신": 6647,
      "전입신고": 6648,
      "##케이크": 6649,
      "##ᆺ도": 6650,
      "##곱": 6651,
      "오셔서": 6652,
      "전환": 6653,
      "확인받": 6654,
      "내의": 6655,
      "대기하겠습니다": 6656,
      "불안": 6657,
      "입어야": 6658,
      "앞서": 6659,
      "무료인가요": 6660,
      "있지만": 6661,
      "오픈했": 6662,
      "발생할": 6663,
      "##집업": 6664,
      "용어를": 6665,
      "무엇": 6666,
      "쏟": 6667,
      "트위드": 6668,
      "35": 6669,
      "##흐": 6670,
      "지도": 6671,
      "동영": 6672,
      "사장님": 6673,
      "중개": 6674,
      "결제로": 6675,
      "필요해서요": 6676,
      "바니": 6677,
      "성명": 6678,
      "말고는": 6679,
      "예쁘": 6680,
      "상태를": 6681,
      "영업시간은": 6682,
      "아이템": 6683,
      "카키색": 6684,
      "##덤": 6685,
      "##ts": 6686,
      "##이어서": 6687,
      "##곳이": 6688,
      "##줄이": 6689,
      "핼러": 6690,
      "조기": 6691,
      "한식": 6692,
      "신청도": 6693,
      "맞는데": 6694,
      "비빔": 6695,
      "직장": 6696,
      "추가됩니다": 6697,
      "##테리": 6698,
      "누구": 6699,
      "시킬게요": 6700,
      "66사이즈": 6701,
      "걸어가시면": 6702,
      "모르겠네": 6703,
      "모델": 6704,
      "오렌지": 6705,
      "동영상": 6706,
      "핼러윈": 6707,
      "##바로": 6708,
      "##덕": 6709,
      "이의": 6710,
      "##주스": 6711,
      "거지": 6712,
      "서서": 6713,
      "신세": 6714,
      "##구역": 6715,
      "감량": 6716,
      "이용하는": 6717,
      "무거": 6718,
      "비교": 6719,
      "소화": 6720,
      "##르는": 6721,
      "완전": 6722,
      "완료되어": 6723,
      "괜찮을": 6724,
      "대상에": 6725,
      "과로": 6726,
      "진열대": 6727,
      "세트메뉴": 6728,
      "우측으로": 6729,
      "55사이즈": 6730,
      "물어봐": 6731,
      "꽃무늬": 6732,
      "무인수납기": 6733,
      "반대편에": 6734,
      "깔끔": 6735,
      "부적합": 6736,
      "신세계": 6737,
      "##므라이": 6738,
      "##련": 6739,
      "##시려면": 6740,
      "오므라이": 6741,
      "기한": 6742,
      "##궁": 6743,
      "구매하러": 6744,
      "주문하려고": 6745,
      "두시": 6746,
      "##관리": 6747,
      "나타": 6748,
      "##르신": 6749,
      "무료주차": 6750,
      "커튼": 6751,
      "##환경": 6752,
      "사실을": 6753,
      "사전예약": 6754,
      "서빙해": 6755,
      "쌀쌀": 6756,
      "거기서": 6757,
      "알레르기": 6758,
      "하여": 6759,
      "주거": 6760,
      "마일": 6761,
      "동사무소": 6762,
      "대기하는": 6763,
      "계시는": 6764,
      "입장하실": 6765,
      "좋겠습니다": 6766,
      "공기": 6767,
      "휴양": 6768,
      "취향": 6769,
      "갈치": 6770,
      "산후": 6771,
      "테라스": 6772,
      "캐리": 6773,
      "포스터를": 6774,
      "안내문을": 6775,
      "선글라스": 6776,
      "제주도": 6777,
      "모둠": 6778,
      "##또": 6779,
      "##ᅥᆸ네요": 6780,
      "제도가": 6781,
      "굽": 6782,
      "이용하여": 6783,
      "받으시면": 6784,
      "무르": 6785,
      "필요할까요": 6786,
      "해당됩니다": 6787,
      "빌": 6788,
      "##권은": 6789,
      "##방문": 6790,
      "관련하여": 6791,
      "패턴": 6792,
      "대상자는": 6793,
      "휴식": 6794,
      "버스를": 6795,
      "발급받으려고": 6796,
      "포인트가": 6797,
      "아무거나": 6798,
      "##밥은": 6799,
      "신상품으로": 6800,
      "비싼데": 6801,
      "누르시면": 6802,
      "아홉시부터": 6803,
      "무릎": 6804,
      "깨": 6805,
      "##이야": 6806,
      "##인은": 6807,
      "##하시다가": 6808,
      "신경": 6809,
      "신청할게요": 6810,
      "##소가": 6811,
      "작성하셔서": 6812,
      "위치합니다": 6813,
      "드시면": 6814,
      "##액이": 6815,
      "나갔다": 6816,
      "연락이": 6817,
      "잃어버려서": 6818,
      "요금은": 6819,
      "심해져": 6820,
      "스타벅": 6821,
      "남자친구": 6822,
      "11월": 6823,
      "열한시": 6824,
      "고등학생": 6825,
      "헷갈리네요": 6826,
      "명함": 6827,
      "3분": 6828,
      "효": 6829,
      "##촬영": 6830,
      "##56": 6831,
      "##스에서": 6832,
      "사탕": 6833,
      "차돌": 6834,
      "민원이": 6835,
      "유선": 6836,
      "##계시면": 6837,
      "##티지": 6838,
      "로봇도": 6839,
      "둘러보시다가": 6840,
      "복지가": 6841,
      "전시관은": 6842,
      "들어오셔서": 6843,
      "하라": 6844,
      "얇은": 6845,
      "웨어": 6846,
      "메뉴로는": 6847,
      "500원입니다": 6848,
      "멀티": 6849,
      "랜": 6850,
      "와이파이": 6851,
      "테이크아웃": 6852,
      "규정상": 6853,
      "팩스로": 6854,
      "르": 6855,
      "##지지": 6856,
      "대학생": 6857,
      "제품들": 6858,
      "그에": 6859,
      "서류입니다": 6860,
      "찾던": 6861,
      "분실했는데": 6862,
      "명입니다": 6863,
      "열람": 6864,
      "니트를": 6865,
      "대기실까지": 6866,
      "빈티지": 6867,
      "환자분의": 6868,
      "증빙서류를": 6869,
      "##줘야": 6870,
      "나머지는": 6871,
      "학교에": 6872,
      "고등어": 6873,
      "##냉면": 6874,
      "웨이팅": 6875,
      "xs": 6876,
      "##누": 6877,
      "##퓨": 6878,
      "시에는": 6879,
      "질병": 6880,
      "섞": 6881,
      "전제품": 6882,
      "##료를": 6883,
      "티가": 6884,
      "##명의": 6885,
      "분께": 6886,
      "찾아오": 6887,
      "화상": 6888,
      "나오고": 6889,
      "나오지": 6890,
      "간식": 6891,
      "표지": 6892,
      "하러": 6893,
      "식당에서": 6894,
      "아우터류": 6895,
      "코트는": 6896,
      "간단하게": 6897,
      "밑단": 6898,
      "맞춰서": 6899,
      "단말기에": 6900,
      "차액": 6901,
      "견": 6902,
      "철": 6903,
      "##응": 6904,
      "##품이": 6905,
      "매진": 6906,
      "맞습니까": 6907,
      "낼": 6908,
      "내도": 6909,
      "진행하겠습니다": 6910,
      "분뇨": 6911,
      "참여하면": 6912,
      "사진촬영": 6913,
      "맡긴": 6914,
      "누락": 6915,
      "폐쇄": 6916,
      "문제로": 6917,
      "탄산음료": 6918,
      "아프고": 6919,
      "하늘색": 6920,
      "##19": 6921,
      "가라는데": 6922,
      "약의": 6923,
      "없으시면": 6924,
      "고객님은": 6925,
      "이용은": 6926,
      "해당합니다": 6927,
      "걸쳐": 6928,
      "먹어보": 6929,
      "달라고": 6930,
      "종류와": 6931,
      "나갈": 6932,
      "##커피": 6933,
      "팔로우": 6934,
      "맛있는": 6935,
      "올라가는": 6936,
      "쉽게": 6937,
      "영상관": 6938,
      "21일": 6939,
      "바뀌어": 6940,
      "어두운": 6941,
      "##ᆫ란": 6942,
      "수업": 6943,
      "올이": 6944,
      "곤란": 6945,
      "입으실": 6946,
      "매출": 6947,
      "이벤트의": 6948,
      "황": 6949,
      "우울": 6950,
      "얼른": 6951,
      "코코": 6952,
      "양념": 6953,
      "기다려주시길": 6954,
      "나와서": 6955,
      "브랜": 6956,
      "찍어서": 6957,
      "컬러를": 6958,
      "촬영은": 6959,
      "평균": 6960,
      "먹어도": 6961,
      "없어도": 6962,
      "지나면": 6963,
      "늦어": 6964,
      "날짜로": 6965,
      "수량을": 6966,
      "막혀": 6967,
      "진료확인서를": 6968,
      "골프웨어": 6969,
      "사랑니": 6970,
      "만약에": 6971,
      "고무줄": 6972,
      "찬": 6973,
      "잇": 6974,
      "주셨는데": 6975,
      "##돈": 6976,
      "##트워": 6977,
      "말차": 6978,
      "네트워": 6979,
      "한꺼": 6980,
      "신청했는데": 6981,
      "같아": 6982,
      "맞아서": 6983,
      "서류와": 6984,
      "준비되면": 6985,
      "##두겠습니다": 6986,
      "적용하여": 6987,
      "사람은": 6988,
      "##ᆯ립": 6989,
      "##초코": 6990,
      "계좌이체로": 6991,
      "가슴": 6992,
      "두꺼운": 6993,
      "한꺼번에": 6994,
      "5일": 6995,
      "해드리는": 6996,
      "봄": 6997,
      "도와주셔서": 6998,
      "##으며": 6999,
      "신청하시는": 7000,
      "참여는": 7001,
      "나왔네요": 7002,
      "라벨": 7003,
      "센터가": 7004,
      "##셨다면": 7005,
      "저번주": 7006,
      "특히": 7007,
      "연락을": 7008,
      "성인용": 7009,
      "세트가": 7010,
      "후드집업": 7011,
      "항목에": 7012,
      "접속": 7013,
      "했습니다": 7014,
      "상하": 7015,
      "상영": 7016,
      "##올": 7017,
      "들어서요": 7018,
      "000원으로": 7019,
      "번호표도": 7020,
      "드십시오": 7021,
      "##음을": 7022,
      "최종": 7023,
      "열시": 7024,
      "신고하러": 7025,
      "##판에": 7026,
      "간편": 7027,
      "스타일의": 7028,
      "해산물": 7029,
      "간호사": 7030,
      "유모차": 7031,
      "랜덤": 7032,
      "##칭": 7033,
      "안되는": 7034,
      "##드리며": 7035,
      "신호": 7036,
      "##증명": 7037,
      "이용하셔도": 7038,
      "##저나": 7039,
      "##소에서": 7040,
      "오늘의": 7041,
      "방문한": 7042,
      "볼수록": 7043,
      "처방해": 7044,
      "결정하겠습니다": 7045,
      "표시된": 7046,
      "소재로": 7047,
      "물어봐야": 7048,
      "그나저나": 7049,
      "##ᆻ지": 7050,
      "기획": 7051,
      "전ᄌ": 7052,
      "부작": 7053,
      "고객님들이": 7054,
      "물건이": 7055,
      "##공자": 7056,
      "통화": 7057,
      "나오는데": 7058,
      "받아주세요": 7059,
      "인식되지": 7060,
      "##법인": 7061,
      "15일": 7062,
      "가져가고": 7063,
      "딱히": 7064,
      "##쳐서": 7065,
      "##하셨다면": 7066,
      "장소가": 7067,
      "##쯤에": 7068,
      "밀크": 7069,
      "시끄러": 7070,
      "##어야": 7071,
      "아는": 7072,
      "##려는": 7073,
      "고흐": 7074,
      "##에서만": 7075,
      "모여": 7076,
      "모자는": 7077,
      "적합": 7078,
      "대기를": 7079,
      "소고기": 7080,
      "나네요": 7081,
      "됐는데": 7082,
      "아니죠": 7083,
      "수납하는": 7084,
      "편리": 7085,
      "들어가고": 7086,
      "전시회에서": 7087,
      "##ᆯ릿": 7088,
      "옆쪽에": 7089,
      "원하시는지": 7090,
      "나오죠": 7091,
      "본적": 7092,
      "페이코": 7093,
      "##셨다니": 7094,
      "휴지": 7095,
      "임시": 7096,
      "커피는": 7097,
      "워크": 7098,
      "사업자등록": 7099,
      "보려고요": 7100,
      "거라면": 7101,
      "시켜야": 7102,
      "관내에서": 7103,
      "오버핏": 7104,
      "##프레": 7105,
      "##가지고": 7106,
      "서면": 7107,
      "##완": 7108,
      "가능하지만": 7109,
      "신원": 7110,
      "##구를": 7111,
      "세무": 7112,
      "내리": 7113,
      "잠겨": 7114,
      "작성을": 7115,
      "000원짜리": 7116,
      "어려워서": 7117,
      "##석이": 7118,
      "따라가": 7119,
      "##조건": 7120,
      "기간입니다": 7121,
      "##으려는데": 7122,
      "붙은": 7123,
      "어제부터": 7124,
      "물어보고": 7125,
      "장소로": 7126,
      "정기검진": 7127,
      "정리해": 7128,
      "활동": 7129,
      "봉사": 7130,
      "원무과에서": 7131,
      "쌀국수": 7132,
      "권해드립니다": 7133,
      "##가를": 7134,
      "숫": 7135,
      "##품을": 7136,
      "##소매": 7137,
      "옷과": 7138,
      "통증": 7139,
      "유해": 7140,
      "교부": 7141,
      "받았는데요": 7142,
      "카페라테": 7143,
      "선물하고": 7144,
      "따라오시기": 7145,
      "##셨나요": 7146,
      "찍으면": 7147,
      "강의": 7148,
      "진단서는": 7149,
      "##끼리": 7150,
      "생기시면": 7151,
      "치워드리겠습니다": 7152,
      "전문점은": 7153,
      "곱창": 7154,
      "상하의": 7155,
      "터": 7156,
      "핏": 7157,
      "대면": 7158,
      "원칙": 7159,
      "계십니다": 7160,
      "소방": 7161,
      "뭐야": 7162,
      "코에": 7163,
      "알려주는": 7164,
      "알려주면": 7165,
      "입어보면": 7166,
      "판매량이": 7167,
      "집업": 7168,
      "손목": 7169,
      "짧": 7170,
      "이비인후과": 7171,
      "at": 7172,
      "정해진": 7173,
      "##ᅳ류": 7174,
      "하거든요": 7175,
      "도장을": 7176,
      "예약되어": 7177,
      "##비가": 7178,
      "들을": 7179,
      "수선해서": 7180,
      "주문하시면": 7181,
      "##겹": 7182,
      "자수": 7183,
      "아니고": 7184,
      "병원을": 7185,
      "잃어버리": 7186,
      "놓겠습니다": 7187,
      "생각해": 7188,
      "여섯시까지": 7189,
      "부서가": 7190,
      "만들고": 7191,
      "요청사항이": 7192,
      "상황을": 7193,
      "베이컨": 7194,
      "트렌치": 7195,
      "얘기해": 7196,
      "실업급여": 7197,
      "공휴일": 7198,
      "atm": 7199,
      "꿀": 7200,
      "예약시간": 7201,
      "##대를": 7202,
      "수선되나요": 7203,
      "영수증에": 7204,
      "들어가야": 7205,
      "날로": 7206,
      "진료실까지": 7207,
      "음료수": 7208,
      "지하로": 7209,
      "말고도": 7210,
      "변동": 7211,
      "여성의류": 7212,
      "불편해서": 7213,
      "##포인트": 7214,
      "가져갈": 7215,
      "상태가": 7216,
      "만들기": 7217,
      "골드": 7218,
      "출입국": 7219,
      "무상으로": 7220,
      "규격": 7221,
      "입어봐야겠네요": 7222,
      "얼음컵": 7223,
      "밀려": 7224,
      "하시려면": 7225,
      "다녀와도": 7226,
      "4일": 7227,
      "##탄": 7228,
      "피클": 7229,
      "기부": 7230,
      "다둥이": 7231,
      "할인돼요": 7232,
      "이벤트나": 7233,
      "내원": 7234,
      "접수증을": 7235,
      "미납": 7236,
      "남는": 7237,
      "수납하고": 7238,
      "무료라고": 7239,
      "근육": 7240,
      "옆쪽": 7241,
      "##미술": 7242,
      "겪": 7243,
      "##셨네요": 7244,
      "복지나": 7245,
      "뜨거운": 7246,
      "작가의": 7247,
      "운영을": 7248,
      "머리가": 7249,
      "신고서는": 7250,
      "제휴사": 7251,
      "규모": 7252,
      "차례가": 7253,
      "넉넉하게": 7254,
      "건축물": 7255,
      "텐데": 7256,
      "바구니에": 7257,
      "화려한": 7258,
      "조용한": 7259,
      "겉옷": 7260,
      "땅": 7261,
      "##탈": 7262,
      "##ᆻ잖아요": 7263,
      "가보": 7264,
      "수박": 7265,
      "서식": 7266,
      "##제는": 7267,
      "##실까지": 7268,
      "이벤트인지": 7269,
      "접수하고": 7270,
      "사람인데요": 7271,
      "가능하니": 7272,
      "디지": 7273,
      "혼자서": 7274,
      "방법에": 7275,
      "무인발급": 7276,
      "##ᆻ으니까": 7277,
      "돈이": 7278,
      "친절하게": 7279,
      "떨어져서": 7280,
      "어플에서": 7281,
      "안내문이": 7282,
      "받으십시오": 7283,
      "입점해": 7284,
      "부드러운": 7285,
      "세부내역서": 7286,
      "쑥": 7287,
      "케": 7288,
      "##닉": 7289,
      "아는데": 7290,
      "맞네요": 7291,
      "나는데": 7292,
      "다른데": 7293,
      "들어갈게요": 7294,
      "참여할게요": 7295,
      "신분증은": 7296,
      "결과를": 7297,
      "주민번호": 7298,
      "체크무늬": 7299,
      "##그컵": 7300,
      "출력을": 7301,
      "입어봤는데": 7302,
      "핸드폰으로": 7303,
      "가져갈게요": 7304,
      "않았나요": 7305,
      "머그컵": 7306,
      "##슈페너": 7307,
      "눌러주시면": 7308,
      "컴퓨": 7309,
      "65세": 7310,
      "쓰레기": 7311,
      "컴퓨터": 7312,
      "bts": 7313,
      "##ᆨ시": 7314,
      "##쌈": 7315,
      "있더라고요": 7316,
      "짐을": 7317,
      "요청이": 7318,
      "##려요": 7319,
      "도와주는": 7320,
      "한가": 7321,
      "관해": 7322,
      "메뉴인": 7323,
      "있으십니다": 7324,
      "관람이": 7325,
      "보내주시면": 7326,
      "##하기로": 7327,
      "아우터를": 7328,
      "막국수": 7329,
      "##퍼가": 7330,
      "슬랙스": 7331,
      "자율점검표": 7332,
      "브로슈": 7333,
      "s사이즈로": 7334,
      "##렁": 7335,
      "##끄": 7336,
      "요청하겠습니다": 7337,
      "##ᅡ온": 7338,
      "했거든요": 7339,
      "마법": 7340,
      "재진": 7341,
      "것들이": 7342,
      "무조건": 7343,
      "로고": 7344,
      "다를": 7345,
      "금연": 7346,
      "판매되고": 7347,
      "외투": 7348,
      "횟": 7349,
      "쪽이": 7350,
      "갈비": 7351,
      "품절이라": 7352,
      "블라우스를": 7353,
      "어려운데": 7354,
      "연결해": 7355,
      "##놓고": 7356,
      "역시": 7357,
      "##튀김": 7358,
      "##드레스": 7359,
      "##스와": 7360,
      "전입": 7361,
      "결제와": 7362,
      "판단": 7363,
      "편집": 7364,
      "노트": 7365,
      "유자": 7366,
      "행사하는": 7367,
      "포함해서": 7368,
      "부대시설": 7369,
      "충분히": 7370,
      "##스럽네요": 7371,
      "복숭": 7372,
      "선물포장": 7373,
      "4층으로": 7374,
      "##칼": 7375,
      "어르신": 7376,
      "##제로": 7377,
      "기저": 7378,
      "상설": 7379,
      "매치": 7380,
      "제품이라": 7381,
      "대기표": 7382,
      "진행한다고": 7383,
      "포크": 7384,
      "증거": 7385,
      "음악": 7386,
      "무료입": 7387,
      "열고": 7388,
      "가지만": 7389,
      "바지도": 7390,
      "##카드가": 7391,
      "좋아하는데": 7392,
      "코트가": 7393,
      "가져온": 7394,
      "남성복": 7395,
      "표시해": 7396,
      "푸른": 7397,
      "찢어졌는데": 7398,
      "묻어": 7399,
      "사망자": 7400,
      "##암": 7401,
      "겁니까": 7402,
      "고려": 7403,
      "마취": 7404,
      "사서": 7405,
      "없사오니": 7406,
      "이벤트에요": 7407,
      "냅": 7408,
      "작성하려고": 7409,
      "메타": 7410,
      "불법": 7411,
      "다음에도": 7412,
      "분실한": 7413,
      "실로": 7414,
      "아이와": 7415,
      "##조리": 7416,
      "나가는": 7417,
      "디스크": 7418,
      "##임을": 7419,
      "진료비는": 7420,
      "후드티가": 7421,
      "계단이": 7422,
      "상황에": 7423,
      "매운탕": 7424,
      "##으십니까": 7425,
      "팸플릿은": 7426,
      "벗고": 7427,
      "할아버지": 7428,
      "신호등": 7429,
      "기저귀": 7430,
      "##클로": 7431,
      "수월": 7432,
      "##와의": 7433,
      "접수하는": 7434,
      "많지": 7435,
      "문으로": 7436,
      "신청서입니다": 7437,
      "일자": 7438,
      "식전": 7439,
      "둘러보실": 7440,
      "포인트를": 7441,
      "팔찌": 7442,
      "바람막이는": 7443,
      "신속히": 7444,
      "열린": 7445,
      "주택임대": 7446,
      "아이보리색": 7447,
      "플래시": 7448,
      "빈자리가": 7449,
      "쓴": 7450,
      "##혈": 7451,
      "##인슈페너": 7452,
      "주어": 7453,
      "##가루": 7454,
      "##ᅡ레": 7455,
      "저쪽으로": 7456,
      "아세요": 7457,
      "오게": 7458,
      "보셔도": 7459,
      "대장": 7460,
      "##치즈": 7461,
      "이용할게요": 7462,
      "관심": 7463,
      "잘라": 7464,
      "영수증으로": 7465,
      "사용하는": 7466,
      "수납해야": 7467,
      "계산하실": 7468,
      "처음이라서": 7469,
      "##심으로": 7470,
      "우측에서": 7471,
      "결정해야": 7472,
      "없어졌어요": 7473,
      "뽑아주세요": 7474,
      "올리오": 7475,
      "래시가드": 7476,
      "##되셨": 7477,
      "아빠": 7478,
      "아인슈페너": 7479,
      "고마": 7480,
      "구석에": 7481,
      "물도": 7482,
      "다문화": 7483,
      "세금": 7484,
      "진행하도록": 7485,
      "발급도": 7486,
      "경로": 7487,
      "문자가": 7488,
      "작성은": 7489,
      "일자를": 7490,
      "화폐": 7491,
      "사용을": 7492,
      "문의하셨습니다": 7493,
      "명부": 7494,
      "노래": 7495,
      "뽑기": 7496,
      "곁": 7497,
      "##했거든요": 7498,
      "이해하기": 7499,
      "순서를": 7500,
      "삼겹": 7501,
      "채워": 7502,
      "귀가": 7503,
      "여섯시": 7504,
      "스테이": 7505,
      "전체적으로": 7506,
      "정수기는": 7507,
      "##복지센터": 7508,
      "말씀이십니까": 7509,
      "기프티콘": 7510,
      "밀크티": 7511,
      "7월": 7512,
      "8번": 7513,
      "남색": 7514,
      "##ᆻ을까요": 7515,
      "가주세요": 7516,
      "안정": 7517,
      "설립": 7518,
      "기업": 7519,
      "대략": 7520,
      "##정의": 7521,
      "##되어서": 7522,
      "감사드립니다": 7523,
      "해주셔도": 7524,
      "화덕": 7525,
      "나왔는데": 7526,
      "신분증으로": 7527,
      "재킷도": 7528,
      "호출하겠습니다": 7529,
      "먹었어요": 7530,
      "없으나": 7531,
      "아동복": 7532,
      "주말에는": 7533,
      "프런트로": 7534,
      "라테가": 7535,
      "해주시고요": 7536,
      "가운데": 7537,
      "냉면": 7538,
      "마쳤는데": 7539,
      "알리오": 7540,
      "냅킨": 7541,
      "2차": 7542,
      "뉴": 7543,
      "##ᆻ고요": 7544,
      "##서와": 7545,
      "##데이": 7546,
      "##짐": 7547,
      "##원을": 7548,
      "고용": 7549,
      "##제가": 7550,
      "##전은": 7551,
      "북": 7552,
      "세미": 7553,
      "관해서": 7554,
      "필요하시": 7555,
      "입장해도": 7556,
      "먹었는데": 7557,
      "방문하여": 7558,
      "버거": 7559,
      "찾아드리겠습니다": 7560,
      "쪽에서": 7561,
      "데가": 7562,
      "sns에서": 7563,
      "사실인가요": 7564,
      "다행입니다": 7565,
      "멀리": 7566,
      "코스요": 7567,
      "사려는데": 7568,
      "분위기": 7569,
      "스마트폰": 7570,
      "꿈ᄂ": 7571,
      "##둔": 7572,
      "##드래": 7573,
      "##트랑": 7574,
      "##콩": 7575,
      "수급": 7576,
      "신혼": 7577,
      "고소": 7578,
      "할지": 7579,
      "할인이라고": 7580,
      "작아서": 7581,
      "대기하십시오": 7582,
      "해당사항": 7583,
      "옷만": 7584,
      "소정의": 7585,
      "배송으로": 7586,
      "로봇이다": 7587,
      "추가할": 7588,
      "알려주셔서": 7589,
      "10일": 7590,
      "기다려도": 7591,
      "##운데": 7592,
      "열려": 7593,
      "받아도": 7594,
      "집중": 7595,
      "김수": 7596,
      "립스": 7597,
      "소요되": 7598,
      "중이던데": 7599,
      "되어있는": 7600,
      "품절되었습니다": 7601,
      "기계로": 7602,
      "수영복을": 7603,
      "접수처에": 7604,
      "상관없는": 7605,
      "외부에": 7606,
      "헷갈려": 7607,
      "##ᆯ라로": 7608,
      "용도로": 7609,
      "텐동": 7610,
      "전자우": 7611,
      "##드래곤": 7612,
      "립스틱": 7613,
      "2개월": 7614,
      "##사용": 7615,
      "##령하": 7616,
      "##해주세요": 7617,
      "지켜": 7618,
      "수령하": 7619,
      "##제공": 7620,
      "드리지": 7621,
      "중이라서": 7622,
      "구매하기": 7623,
      "말씀드리": 7624,
      "##분들의": 7625,
      "와주십시오": 7626,
      "싶으시면": 7627,
      "진행하나요": 7628,
      "##솔": 7629,
      "시간으로": 7630,
      "우동": 7631,
      "참여하는": 7632,
      "찾아주십시오": 7633,
      "업종": 7634,
      "다양하네요": 7635,
      "이쪽이": 7636,
      "부스로": 7637,
      "웰": 7638,
      "1234": 7639,
      "유니클로": 7640,
      "##되었으니": 7641,
      "처방받은": 7642,
      "협의": 7643,
      "시간대를": 7644,
      "끼쳐": 7645,
      "플리스": 7646,
      "무지개": 7647,
      "수고하세요": 7648,
      "코코아": 7649,
      "꿈나래": 7650,
      "전자우편": 7651,
      "200원": 7652,
      "7번": 7653,
      "켜": 7654,
      "##ᆼ단": 7655,
      "있거든요": 7656,
      "얻": 7657,
      "오지": 7658,
      "도록": 7659,
      "확인됐습니다": 7660,
      "알맞": 7661,
      "개로": 7662,
      "나고": 7663,
      "아니라서": 7664,
      "사용해도": 7665,
      "추가적인": 7666,
      "연기": 7667,
      "들어가셔서": 7668,
      "횡단": 7669,
      "당황": 7670,
      "날을": 7671,
      "예정이": 7672,
      "예정인데": 7673,
      "키워": 7674,
      "순으로": 7675,
      "수선실을": 7676,
      "날짜가": 7677,
      "m사이즈가": 7678,
      "소지하고": 7679,
      "절차가": 7680,
      "태그해": 7681,
      "130": 7682,
      "열리는": 7683,
      "예술인": 7684,
      "란에": 7685,
      "플레이": 7686,
      "잇모": 7687,
      "노트북": 7688,
      "메타버": 7689,
      "삼겹살": 7690,
      "횡단보": 7691,
      "쌈": 7692,
      "##33": 7693,
      "가득": 7694,
      "보도록": 7695,
      "약속이": 7696,
      "##과가": 7697,
      "이용하시기": 7698,
      "발급하려고": 7699,
      "영양": 7700,
      "주차했는데요": 7701,
      "연세": 7702,
      "수납창구": 7703,
      "실밥이": 7704,
      "불가능하십니다": 7705,
      "되어있": 7706,
      "층마다": 7707,
      "검은색과": 7708,
      "막걸리": 7709,
      "거라서요": 7710,
      "무엇을": 7711,
      "##이시라면": 7712,
      "넉넉한": 7713,
      "지하철역": 7714,
      "cc": 7715,
      "##라요": 7716,
      "##빼": 7717,
      "##스트를": 7718,
      "지드래곤": 7719,
      "예약하겠습니다": 7720,
      "없애": 7721,
      "와봐서": 7722,
      "티는": 7723,
      "찾아와": 7724,
      "1층의": 7725,
      "##업무": 7726,
      "가격표": 7727,
      "만석": 7728,
      "궁금합니다": 7729,
      "취급하는": 7730,
      "유효기간이": 7731,
      "퀴": 7732,
      "이달": 7733,
      "##ᅮᆫ천": 7734,
      "##나다": 7735,
      "결제되나요": 7736,
      "로즈": 7737,
      "##소와": 7738,
      "등록하려고": 7739,
      "추가하면": 7740,
      "입어보니까": 7741,
      "공제": 7742,
      "유형": 7743,
      "반지": 7744,
      "치과": 7745,
      "뒤편에": 7746,
      "디스": 7747,
      "주차장을": 7748,
      "기준에": 7749,
      "비싸요": 7750,
      "발권을": 7751,
      "즐길": 7752,
      "##정보를": 7753,
      "드레스를": 7754,
      "쓰여있는데": 7755,
      "오류가": 7756,
      "가볍게": 7757,
      "횟수": 7758,
      "고맙습니다": 7759,
      "m사이즈로": 7760,
      "거기에": 7761,
      "##실입니다": 7762,
      "드리기": 7763,
      "구매하려면": 7764,
      "것들": 7765,
      "영아": 7766,
      "뽑으셔야": 7767,
      "가지러": 7768,
      "##길래": 7769,
      "##법에": 7770,
      "##했다고": 7771,
      "체크하시면": 7772,
      "다양합니다": 7773,
      "영업합니다": 7774,
      "근처에서": 7775,
      "애플": 7776,
      "검은색은": 7777,
      "계좌번호": 7778,
      "많아서요": 7779,
      "상관없습니다": 7780,
      "김치찌개": 7781,
      "호피무늬": 7782,
      "멀티숍": 7783,
      "##하긴": 7784,
      "예약된": 7785,
      "말이에요": 7786,
      "매도": 7787,
      "위생": 7788,
      "개와": 7789,
      "개설": 7790,
      "않을": 7791,
      "작성한": 7792,
      "계정을": 7793,
      "선불": 7794,
      "스물": 7795,
      "스피": 7796,
      "성별": 7797,
      "뽑은": 7798,
      "제출용": 7799,
      "치아": 7800,
      "달러": 7801,
      "참고하십시오": 7802,
      "착용한": 7803,
      "컬러도": 7804,
      "변경해": 7805,
      "급해서": 7806,
      "구역은": 7807,
      "뜻하는": 7808,
      "나눔": 7809,
      "교통비": 7810,
      "작년에": 7811,
      "이메일": 7812,
      "산부인과": 7813,
      "감량기": 7814,
      "1주일": 7815,
      "##ᆻ던데": 7816,
      "##ᆻ더라고요": 7817,
      "##평": 7818,
      "##cm": 7819,
      "##떼": 7820,
      "##승": 7821,
      "##기한": 7822,
      "다인": 7823,
      "할인으로": 7824,
      "어디일까요": 7825,
      "상품이라서": 7826,
      "건은": 7827,
      "경험": 7828,
      "두시에": 7829,
      "##관으로": 7830,
      "서비스에": 7831,
      "명이요": 7832,
      "직원의": 7833,
      "단정": 7834,
      "단속": 7835,
      "식기": 7836,
      "##너지": 7837,
      "계산할": 7838,
      "##했었는데": 7839,
      "3층은": 7840,
      "앉아계시면": 7841,
      "잃어버렸는데요": 7842,
      "급한": 7843,
      "30분부터": 7844,
      "카디건을": 7845,
      "s사이즈는": 7846,
      "사회복지": 7847,
      "24시간": 7848,
      "카카오톡으로": 7849,
      "펜이": 7850,
      "충전재": 7851,
      "제도는": 7852,
      "필라프": 7853,
      "스피커": 7854,
      "드라이": 7855,
      "##크랑": 7856,
      "지상": 7857,
      "안과": 7858,
      "걷": 7859,
      "말소": 7860,
      "사무소": 7861,
      "내시경": 7862,
      "필요해서": 7863,
      "많을": 7864,
      "두통이": 7865,
      "추천합니다": 7866,
      "##뉴얼": 7867,
      "바까": 7868,
      "##피아": 7869,
      "방문을": 7870,
      "반반": 7871,
      "에너지": 7872,
      "30m": 7873,
      "##위가": 7874,
      "해야겠네요": 7875,
      "과태": 7876,
      "맡아": 7877,
      "이동하면": 7878,
      "지역에": 7879,
      "홈웨어": 7880,
      "좋아하는": 7881,
      "챙겨오": 7882,
      "웰론": 7883,
      "제한됩니다": 7884,
      "항목은": 7885,
      "낮은": 7886,
      "무거워서": 7887,
      "##십니까": 7888,
      "거니까": 7889,
      "제게": 7890,
      "구워": 7891,
      "##님의": 7892,
      "모자가": 7893,
      "계셔서": 7894,
      "##아용": 7895,
      "등록기준": 7896,
      "보여주시기": 7897,
      "양치": 7898,
      "명이에요": 7899,
      "방문했는데": 7900,
      "유아용": 7901,
      "2층은": 7902,
      "완료된": 7903,
      "야생": 7904,
      "팔린": 7905,
      "##께서는": 7906,
      "##하려는": 7907,
      "구입하고": 7908,
      "항목입니다": 7909,
      "현금영수증도": 7910,
      "필요한데요": 7911,
      "피해를": 7912,
      "알림을": 7913,
      "운전면허": 7914,
      "봉골": 7915,
      "6개월까지": 7916,
      "정신이": 7917,
      "예쁜데": 7918,
      "힘들어요": 7919,
      "맞은편": 7920,
      "자가격": 7921,
      "주방에": 7922,
      "워크숍": 7923,
      "봉골레": 7924,
      "낙": 7925,
      "정면에": 7926,
      "시민": 7927,
      "안되": 7928,
      "##원이": 7929,
      "기분이": 7930,
      "없지만": 7931,
      "매우": 7932,
      "발열": 7933,
      "개랑": 7934,
      "##명은": 7935,
      "위치에": 7936,
      "다른가요": 7937,
      "2층입니다": 7938,
      "사진이": 7939,
      "친환경": 7940,
      "나가면": 7941,
      "##즈니": 7942,
      "지역으로": 7943,
      "##커리": 7944,
      "홈페이지에": 7945,
      "농지": 7946,
      "##그래피": 7947,
      "코로나19": 7948,
      "이쁘네요": 7949,
      "망가": 7950,
      "부가세": 7951,
      "자가격리": 7952,
      "a코": 7953,
      "##12": 7954,
      "##봇": 7955,
      "있구나": 7956,
      "주시거나": 7957,
      "피자는": 7958,
      "대부분": 7959,
      "세벌": 7960,
      "바라며": 7961,
      "원하실": 7962,
      "비영": 7963,
      "##하게도": 7964,
      "금유": 7965,
      "공ᄍ": 7966,
      "##계층": 7967,
      "반바": 7968,
      "근무": 7969,
      "나와있습니다": 7970,
      "처리하고": 7971,
      "조회가": 7972,
      "대상입니다": 7973,
      "가져왔어요": 7974,
      "궁금하네요": 7975,
      "심한데": 7976,
      "레스토랑에": 7977,
      "먹을게요": 7978,
      "##하셨을": 7979,
      "청바지는": 7980,
      "출구로": 7981,
      "날짜는": 7982,
      "구두를": 7983,
      "팬츠": 7984,
      "진료받으시면": 7985,
      "엑스레이를": 7986,
      "주웠는데": 7987,
      "느낌의": 7988,
      "바깥": 7989,
      "비영리": 7990,
      "금융": 7991,
      "9시": 7992,
      "짝": 7993,
      "##보려고": 7994,
      "있겠습니다": 7995,
      "수단을": 7996,
      "도시": 7997,
      "안내에": 7998,
      "없다는": 7999,
      "적나요": 8000,
      "##들한테": 8001,
      "들어가요": 8002,
      "노무": 8003,
      "유통": 8004,
      "참여를": 8005,
      "참여됩니다": 8006,
      "제출하려고": 8007,
      "지원금도": 8008,
      "달린": 8009,
      "인식할": 8010,
      "키우": 8011,
      "써주시면": 8012,
      "엘리베이터로": 8013,
      "가방은": 8014,
      "확인서는": 8015,
      "잠옷은": 8016,
      "프로그래": 8017,
      "시켜도": 8018,
      "어플을": 8019,
      "혼인신고": 8020,
      "연고를": 8021,
      "사이트에서": 8022,
      "깜짝이야": 8023,
      "로봇이라니": 8024,
      "특징을": 8025,
      "춘천": 8026,
      "##낙": 8027,
      "##인식": 8028,
      "시설이": 8029,
      "술": 8030,
      "수를": 8031,
      "##문을": 8032,
      "여기다": 8033,
      "중년": 8034,
      "결제하려는데": 8035,
      "할인한다고": 8036,
      "발급되는": 8037,
      "자판": 8038,
      "먹기": 8039,
      "노약": 8040,
      "직원분이": 8041,
      "식사를": 8042,
      "둘러보세요": 8043,
      "보내고": 8044,
      "각종": 8045,
      "있을까": 8046,
      "담당자에게": 8047,
      "바꿀": 8048,
      "앱에": 8049,
      "필요하며": 8050,
      "샷": 8051,
      "커플로": 8052,
      "구체적인": 8053,
      "소진되었습니다": 8054,
      "##플레이": 8055,
      "배송비까지": 8056,
      "우비를": 8057,
      "복잡해서": 8058,
      "##꽃": 8059,
      "룩": 8060,
      "##ᅳᆫ데": 8061,
      "##지네요": 8062,
      "인화": 8063,
      "##부부": 8064,
      "맞으러": 8065,
      "이용권": 8066,
      "대기할": 8067,
      "서류로": 8068,
      "사용할게요": 8069,
      "##바이": 8070,
      "아이들이": 8071,
      "카운터는": 8072,
      "둘이": 8073,
      "달지": 8074,
      "과정을": 8075,
      "이동이": 8076,
      "##ᆸ게도": 8077,
      "끝나면": 8078,
      "맡겨주시면": 8079,
      "디자인으로": 8080,
      "장소를": 8081,
      "신청하려고요": 8082,
      "빠네": 8083,
      "등산용": 8084,
      "양육수당": 8085,
      "초등학교": 8086,
      "떨어뜨린": 8087,
      "라운": 8088,
      "##띠": 8089,
      "고정": 8090,
      "받기": 8091,
      "주문했는데": 8092,
      "개입니다": 8093,
      "사이즈입니다": 8094,
      "돼서요": 8095,
      "추가할게요": 8096,
      "보여드릴": 8097,
      "명세서": 8098,
      "뒤쪽": 8099,
      "예정이니": 8100,
      "버리": 8101,
      "커피가": 8102,
      "선택하실": 8103,
      "심리": 8104,
      "m사이즈는": 8105,
      "절차를": 8106,
      "알림이": 8107,
      "담아주세요": 8108,
      "##봐야겠네요": 8109,
      "홀에서": 8110,
      "사야겠네요": 8111,
      "추가요금이": 8112,
      "공깃": 8113,
      "편집숍": 8114,
      "복숭아": 8115,
      "톡": 8116,
      "##tv": 8117,
      "시나": 8118,
      "조정": 8119,
      "구운": 8120,
      "##정산": 8121,
      "감염": 8122,
      "결제한": 8123,
      "재관람": 8124,
      "발레": 8125,
      "무선": 8126,
      "신청서의": 8127,
      "비타": 8128,
      "나면": 8129,
      "##단이": 8130,
      "민원실로": 8131,
      "##넥": 8132,
      "##개로": 8133,
      "받았던": 8134,
      "가능하오니": 8135,
      "여권발급": 8136,
      "세트는": 8137,
      "적혀있습니다": 8138,
      "놓여": 8139,
      "않아도": 8140,
      "없어져": 8141,
      "전화번호는": 8142,
      "기본적으로": 8143,
      "아니라면": 8144,
      "인감도": 8145,
      "짧은": 8146,
      "느낌이": 8147,
      "cctv": 8148,
      "틀": 8149,
      "##ᆷ새": 8150,
      "##ᆻ사오니": 8151,
      "##kg": 8152,
      "이너": 8153,
      "##시겠어요": 8154,
      "주부터": 8155,
      "가위": 8156,
      "되시면": 8157,
      "제철": 8158,
      "하게": 8159,
      "하니까": 8160,
      "##하시어": 8161,
      "보증": 8162,
      "피가": 8163,
      "##나는": 8164,
      "확인하였습니다": 8165,
      "##빈": 8166,
      "결제금액": 8167,
      "몰려": 8168,
      "그럴": 8169,
      "추정": 8170,
      "비상": 8171,
      "추천으로": 8172,
      "못했어요": 8173,
      "생크림": 8174,
      "호전": 8175,
      "담당하는": 8176,
      "##됐나요": 8177,
      "탑스": 8178,
      "될지": 8179,
      "면세": 8180,
      "항상": 8181,
      "지참하신": 8182,
      "아메리카노로": 8183,
      "포스터에": 8184,
      "들어와서": 8185,
      "들어왔는데": 8186,
      "글씨": 8187,
      "빠진": 8188,
      "이벤트라": 8189,
      "부대찌개": 8190,
      "존재하지": 8191,
      "바닐라": 8192,
      "영양제": 8193,
      "시나몬": 8194,
      "탑승": 8195,
      "##슬": 8196,
      "이곳이": 8197,
      "##려금": 8198,
      "서라": 8199,
      "인공": 8200,
      "다이어": 8201,
      "##호박": 8202,
      "차에": 8203,
      "작성했는데": 8204,
      "##화를": 8205,
      "준비할": 8206,
      "걸어서": 8207,
      "좋으면": 8208,
      "##함이": 8209,
      "명은": 8210,
      "명칭": 8211,
      "시작하는": 8212,
      "설마": 8213,
      "단호박": 8214,
      "보이지": 8215,
      "모르겠습니다": 8216,
      "과실로": 8217,
      "나아": 8218,
      "수영복은": 8219,
      "운영하지": 8220,
      "할인행사를": 8221,
      "깔창": 8222,
      "숙박": 8223,
      "전신거울": 8224,
      "##콤한": 8225,
      "중개사무소": 8226,
      "산후조리": 8227,
      "서랍": 8228,
      "3단계": 8229,
      "##혜": 8230,
      "##브ᄅ": 8231,
      "##이다": 8232,
      "잊": 8233,
      "이어서": 8234,
      "##하기가": 8235,
      "##장국": 8236,
      "##원에게": 8237,
      "기회": 8238,
      "말까지": 8239,
      "##염이": 8240,
      "발라": 8241,
      "적을": 8242,
      "사이즈랑": 8243,
      "약국도": 8244,
      "참치": 8245,
      "사용하여": 8246,
      "민원처리": 8247,
      "적용되": 8248,
      "외의": 8249,
      "어려워": 8250,
      "드세요": 8251,
      "2층에도": 8252,
      "최선을": 8253,
      "인식하기": 8254,
      "입구를": 8255,
      "적어주십시오": 8256,
      "니트도": 8257,
      "올라간": 8258,
      "수령해": 8259,
      "신상품이": 8260,
      "초콜릿": 8261,
      "빨대는": 8262,
      "레이스": 8263,
      "스푼": 8264,
      "vr": 8265,
      "든": 8266,
      "시기에": 8267,
      "저고리": 8268,
      "보십시오": 8269,
      "##걸": 8270,
      "고급": 8271,
      "와보": 8272,
      "위반": 8273,
      "제품들도": 8274,
      "관할": 8275,
      "소포": 8276,
      "선결제": 8277,
      "알려주시길": 8278,
      "##바구니": 8279,
      "병역": 8280,
      "유명하": 8281,
      "반찬": 8282,
      "담백": 8283,
      "아이들": 8284,
      "정도가": 8285,
      "할인이나": 8286,
      "사업장": 8287,
      "보관할": 8288,
      "불편한데": 8289,
      "알려줘": 8290,
      "아우터는": 8291,
      "기입해야": 8292,
      "끝났습니다": 8293,
      "먹을만한": 8294,
      "물품을": 8295,
      "아래층으로": 8296,
      "시키면": 8297,
      "해물파": 8298,
      "응급실": 8299,
      "직진하시면": 8300,
      "민트색": 8301,
      "씩": 8302,
      "악": 8303,
      "이행": 8304,
      "지속": 8305,
      "고른": 8306,
      "안내받을": 8307,
      "결제해야": 8308,
      "구매해서": 8309,
      "발치": 8310,
      "##대장": 8311,
      "주문해야": 8312,
      "배송지를": 8313,
      "##받으면": 8314,
      "화물": 8315,
      "문의의": 8316,
      "여기서도": 8317,
      "키가": 8318,
      "발급받아야": 8319,
      "가져왔는데요": 8320,
      "앉아주세요": 8321,
      "올라가셔서": 8322,
      "주행해": 8323,
      "상관없어요": 8324,
      "형광": 8325,
      "좌석은": 8326,
      "도서관": 8327,
      "하셔서요": 8328,
      "못했사오니": 8329,
      "2일": 8330,
      "34": 8331,
      "32": 8332,
      "pc": 8333,
      "가로": 8334,
      "있기": 8335,
      "상호": 8336,
      "대충": 8337,
      "샀던": 8338,
      "입체": 8339,
      "##빛": 8340,
      "할인권을": 8341,
      "재방문": 8342,
      "위험": 8343,
      "이용하십시오": 8344,
      "부탁할게요": 8345,
      "관공": 8346,
      "명단에": 8347,
      "방문했습니다": 8348,
      "외과": 8349,
      "제공합니다": 8350,
      "30개": 8351,
      "찾아보고": 8352,
      "리뉴얼": 8353,
      "매장엔": 8354,
      "방법으로": 8355,
      "잔으로": 8356,
      "진료비를": 8357,
      "먹어야": 8358,
      "계단은": 8359,
      "계단으로": 8360,
      "앱에서": 8361,
      "디자인의": 8362,
      "이내로": 8363,
      "증명사진": 8364,
      "와야겠다": 8365,
      "케이크는": 8366,
      "편안히": 8367,
      "열한시부터": 8368,
      "좌석이": 8369,
      "제외하고는": 8370,
      "놀랐어요": 8371,
      "바람막이를": 8372,
      "볼펜을": 8373,
      "재밌는": 8374,
      "보관함에": 8375,
      "앤디": 8376,
      "무엇인가요": 8377,
      "쳐": 8378,
      "##ᆸ스터": 8379,
      "##떡": 8380,
      "##보관": 8381,
      "요거": 8382,
      "요새": 8383,
      "##도로": 8384,
      "##장찌개": 8385,
      "아들": 8386,
      "예산": 8387,
      "예약하려고요": 8388,
      "상품들도": 8389,
      "내내": 8390,
      "##저분": 8391,
      "묶": 8392,
      "두시까지": 8393,
      "않겠죠": 8394,
      "##식으로": 8395,
      "바ᄈ": 8396,
      "문의하면": 8397,
      "공용으로": 8398,
      "가격을": 8399,
      "현금과": 8400,
      "실시간": 8401,
      "보관해": 8402,
      "보관용": 8403,
      "리조": 8404,
      "자세하게": 8405,
      "넣을": 8406,
      "##형을": 8407,
      "키오스": 8408,
      "여부에": 8409,
      "##허가": 8410,
      "셔츠는": 8411,
      "바꾸": 8412,
      "물품보관": 8413,
      "다녀오시면": 8414,
      "맨투맨은": 8415,
      "잘나가": 8416,
      "합쳐서": 8417,
      "사이에": 8418,
      "행정복지센터": 8419,
      "업로드해": 8420,
      "캠핑장": 8421,
      "있으신가요": 8422,
      "뜯어": 8423,
      "컨디": 8424,
      "무인발급기": 8425,
      "##팩": 8426,
      "정정": 8427,
      "지저분": 8428,
      "해볼게요": 8429,
      "사과": 8430,
      "구매하셔야": 8431,
      "말씀드리면": 8432,
      "재활": 8433,
      "알아요": 8434,
      "피팅룸도": 8435,
      "분은": 8436,
      "주차비": 8437,
      "배송지": 8438,
      "##있어": 8439,
      "병원으로": 8440,
      "병원과": 8441,
      "##텔": 8442,
      "인식에": 8443,
      "사진은": 8444,
      "리폼": 8445,
      "들어오십시오": 8446,
      "아닌가": 8447,
      "워홀": 8448,
      "올라가면": 8449,
      "어제부로": 8450,
      "끝나고": 8451,
      "신상품은": 8452,
      "넘어": 8453,
      "남아있지": 8454,
      "서명해": 8455,
      "발견된": 8456,
      "카메ᄅ": 8457,
      "어려우십니다": 8458,
      "택배비가": 8459,
      "사라졌어요": 8460,
      "채널을": 8461,
      "폭립": 8462,
      "깜빡하고": 8463,
      "상처가": 8464,
      "내리시면": 8465,
      "입체주의": 8466,
      "데이터": 8467,
      "갔다가": 8468,
      "##가지": 8469,
      "조치": 8470,
      "약도": 8471,
      "물은": 8472,
      "결제되셨습니다": 8473,
      "할인되죠": 8474,
      "같고": 8475,
      "매장도": 8476,
      "이용하시는": 8477,
      "내시면": 8478,
      "것만": 8479,
      "죄송하게도": 8480,
      "멜": 8481,
      "찾기가": 8482,
      "앞까지": 8483,
      "알려주십시오": 8484,
      "##버레이션": 8485,
      "참여하려고": 8486,
      "어려워요": 8487,
      "사람을": 8488,
      "목살": 8489,
      "원피스도": 8490,
      "인식을": 8491,
      "알아보고": 8492,
      "택배를": 8493,
      "사업이": 8494,
      "사업은": 8495,
      "데는": 8496,
      "수령하실": 8497,
      "치료비": 8498,
      "잔여": 8499,
      "##기엔": 8500,
      "가져가시면": 8501,
      "설치된": 8502,
      "신발이": 8503,
      "인원은": 8504,
      "접수처로": 8505,
      "파우치": 8506,
      "여행을": 8507,
      "중앙에": 8508,
      "4인석": 8509,
      "공동명의": 8510,
      "페퍼": 8511,
      "오랜만에": 8512,
      "kt": 8513,
      "카라": 8514,
      "##07": 8515,
      "##케": 8516,
      "##ᆺ가락": 8517,
      "##2년": 8518,
      "##확인서": 8519,
      "수정": 8520,
      "되도록": 8521,
      "##되신": 8522,
      "입혀": 8523,
      "인계": 8524,
      "고객분들": 8525,
      "없습니까": 8526,
      "부를": 8527,
      "##으셔도": 8528,
      "##터리": 8529,
      "알람": 8530,
      "내에서는": 8531,
      "방지": 8532,
      "찾기": 8533,
      "000원은": 8534,
      "##래버레이션": 8535,
      "사용하면": 8536,
      "장학": 8537,
      "뽑을": 8538,
      "옆으로": 8539,
      "담긴": 8540,
      "관람권": 8541,
      "달려": 8542,
      "달달": 8543,
      "카페입니다": 8544,
      "벌레": 8545,
      "상담은": 8546,
      "나가서": 8547,
      "오후에": 8548,
      "비용을": 8549,
      "표는": 8550,
      "##사항을": 8551,
      "용품": 8552,
      "가져왔습니다": 8553,
      "출력합니다": 8554,
      "지급되는": 8555,
      "아우터류는": 8556,
      "공간은": 8557,
      "전문매장": 8558,
      "지나서": 8559,
      "삼성카드": 8560,
      "양식이": 8561,
      "단추를": 8562,
      "출생신고서": 8563,
      "재입장": 8564,
      "벽에": 8565,
      "신한카드": 8566,
      "주의해": 8567,
      "칼로": 8568,
      "페퍼민": 8569,
      "##시지": 8570,
      "##주고": 8571,
      "하다가": 8572,
      "도시면": 8573,
      "동시에": 8574,
      "고객을": 8575,
      "##자도": 8576,
      "상품인가요": 8577,
      "##재키": 8578,
      "어떨": 8579,
      "나무": 8580,
      "배송할": 8581,
      "때마다": 8582,
      "못하는": 8583,
      "새겨": 8584,
      "참여하시면": 8585,
      "목적으로": 8586,
      "된다는": 8587,
      "컬래버레이션": 8588,
      "알려드릴": 8589,
      "손님들이": 8590,
      "아이스로": 8591,
      "테마": 8592,
      "속이": 8593,
      "별로네요": 8594,
      "날짜에": 8595,
      "레깅스를": 8596,
      "똑같이": 8597,
      "스카프는": 8598,
      "누르면": 8599,
      "경품을": 8600,
      "##비용은": 8601,
      "처음이라서요": 8602,
      "클리닉": 8603,
      "엄마가": 8604,
      "개월까지": 8605,
      "열쇠를": 8606,
      "태블릿에": 8607,
      "곁들": 8608,
      "5개월": 8609,
      "8시": 8610,
      "카레": 8611,
      "##눈": 8612,
      "##자용": 8613,
      "##클ᄅ": 8614,
      "정류": 8615,
      "시킨": 8616,
      "다소": 8617,
      "구매했던": 8618,
      "이용하신": 8619,
      "필러": 8620,
      "일본": 8621,
      "못해": 8622,
      "남편": 8623,
      "수납하려고": 8624,
      "지원금으로": 8625,
      "음식점": 8626,
      "된다던데": 8627,
      "주차장에서": 8628,
      "커피를": 8629,
      "검은색으로": 8630,
      "나이프": 8631,
      "이것만": 8632,
      "휴대폰이": 8633,
      "다녀오십시오": 8634,
      "이어폰": 8635,
      "이벤트라는": 8636,
      "자료를": 8637,
      "포상금": 8638,
      "주차요": 8639,
      "디지털": 8640,
      "다이어트": 8641,
      "100원입니다": 8642,
      "##밤": 8643,
      "##라야": 8644,
      "지도를": 8645,
      "시일": 8646,
      "##길이": 8647,
      "수출": 8648,
      "##주민": 8649,
      "서명을": 8650,
      "도토": 8651,
      "구급": 8652,
      "확인되어": 8653,
      "다다음": 8654,
      "어딨죠": 8655,
      "##터가": 8656,
      "번호판": 8657,
      "추천할": 8658,
      "영수증만": 8659,
      "##외과": 8660,
      "나오네요": 8661,
      "종류별로": 8662,
      "20일": 8663,
      "가능합니까": 8664,
      "기간을": 8665,
      "적립을": 8666,
      "데리고": 8667,
      "놓은": 8668,
      "멋": 8669,
      "키오스크가": 8670,
      "재발급은": 8671,
      "##하셨으면": 8672,
      "포토부": 8673,
      "소견서를": 8674,
      "상품들입니다": 8675,
      "챙겨왔어요": 8676,
      "신기해라": 8677,
      "멜빵": 8678,
      "3주": 8679,
      "##셋": 8680,
      "예약돼요": 8681,
      "할인과": 8682,
      "한문": 8683,
      "##재난": 8684,
      "후유": 8685,
      "자리부터": 8686,
      "이용권을": 8687,
      "발급할": 8688,
      "옷들도": 8689,
      "서류의": 8690,
      "위치와": 8691,
      "준비물": 8692,
      "콜": 8693,
      "코드를": 8694,
      "명을": 8695,
      "사람도": 8696,
      "얼마까지": 8697,
      "주소지를": 8698,
      "로봇인가": 8699,
      "나가야": 8700,
      "국세": 8701,
      "곳이나": 8702,
      "변경은": 8703,
      "층에는": 8704,
      "가져가서": 8705,
      "심장": 8706,
      "떨어지면": 8707,
      "양식에": 8708,
      "어플로": 8709,
      "수유실": 8710,
      "기초생활수급자": 8711,
      "얼룩이": 8712,
      "인증샷": 8713,
      "3d": 8714,
      "밤에": 8715,
      "울": 8716,
      "##ᅳ면": 8717,
      "어디인지": 8718,
      "##상으로": 8719,
      "##ᆸ시요": 8720,
      "들러": 8721,
      "접수대에서": 8722,
      "작성하시고": 8723,
      "신청서에서": 8724,
      "##동의": 8725,
      "##피가": 8726,
      "민원의": 8727,
      "수납내역": 8728,
      "##처를": 8729,
      "들어가지": 8730,
      "드셔도": 8731,
      "##팀": 8732,
      "만남": 8733,
      "김시": 8734,
      "찾아도": 8735,
      "이동해야": 8736,
      "출력은": 8737,
      "##센터에서": 8738,
      "계좌를": 8739,
      "길어서요": 8740,
      "단체복": 8741,
      "##교육": 8742,
      "프릴": 8743,
      "나이가": 8744,
      "홍보": 8745,
      "명의의": 8746,
      "강아지가": 8747,
      "쇼핑몰에서": 8748,
      "선호하시는": 8749,
      "분들께": 8750,
      "넥타이는": 8751,
      "압출": 8752,
      "바닥에": 8753,
      "예뻐서": 8754,
      "우울증": 8755,
      "무료입장": 8756,
      "3년": 8757,
      "쌍": 8758,
      "헬": 8759,
      "##ᆺ살": 8760,
      "##가가": 8761,
      "오더": 8762,
      "동거": 8763,
      "물이": 8764,
      "고객님들의": 8765,
      "싶어": 8766,
      "접수하신": 8767,
      "발급에": 8768,
      "그다음": 8769,
      "방과": 8770,
      "준비되는": 8771,
      "##복죽": 8772,
      "##입구에": 8773,
      "공란": 8774,
      "방문해야": 8775,
      "유의": 8776,
      "곳입니다": 8777,
      "환급": 8778,
      "실적": 8779,
      "에서": 8780,
      "아이의": 8781,
      "봐주시겠어요": 8782,
      "파일을": 8783,
      "신고하는": 8784,
      "가능하나요": 8785,
      "색상과": 8786,
      "사업을": 8787,
      "국제": 8788,
      "뜻을": 8789,
      "변경이": 8790,
      "1인용": 8791,
      "방문했어요": 8792,
      "드려서": 8793,
      "즐기": 8794,
      "칸은": 8795,
      "잠옷도": 8796,
      "##슈즈": 8797,
      "사전에": 8798,
      "양식은": 8799,
      "제한되어": 8800,
      "110": 8801,
      "소재의": 8802,
      "보건소에": 8803,
      "운동복을": 8804,
      "갖다주세요": 8805,
      "일곱시에": 8806,
      "한시적": 8807,
      "가슴살": 8808,
      "적합한": 8809,
      "흔": 8810,
      "정밀": 8811,
[...]
