[PAD]
[UNK]
[CLS]
[SEP]
[MASK]
[BOS]
[EOS]
%
'
+
,
.
/
0
1
2
3
4
5
6
7
8
9
?
[
]
`
a
b
c
d
e
f
g
h
i
j
k
l
m
n
o
p
q
r
s
t
u
v
w
x
y
z
ᄀ
ᄁ
ᄂ
ᄃ
ᄄ
ᄅ
ᄆ
ᄇ
ᄈ
ᄉ
ᄊ
ᄋ
ᄌ
ᄍ
ᄎ
ᄏ
ᄐ
ᄑ
ᄒ
ᅡ
ᅢ
ᅣ
ᅤ
ᅥ
ᅦ
ᅧ
ᅨ
ᅩ
ᅪ
ᅫ
ᅬ
ᅭ
ᅮ
ᅯ
ᅰ
ᅱ
ᅲ
ᅳ
ᅴ
ᅵ
ᆨ
ᆩ
ᆪ
ᆫ
ᆬ
ᆭ
ᆮ
ᆯ
ᆰ
ᆱ
ᆲ
ᆴ
ᆶ
ᆷ
ᆸ
ᆹ
ᆺ
ᆻ
ᆼ
ᆽ
ᆾ
ᆿ
ᇀ
ᇁ
ᇂ
…
℃
○
ㅇ
ㅍ
ㅜ
ㅣ
㎡
##ᅮ
##ᄎ
##ᅡ
##ᄒ
##ᄉ
##ᅵ
##ᄆ
##ᅧ
##ᆫ
##ᅢ
##ᆼ
##ᄋ
##ᅦ
##ᄇ
##ᅩ
##ᄅ
##ᄀ
##ᇀ
##ᅭ
##ᄃ
##ᅳ
##ᄂ
##ᅪ
##ᄌ
##ᅥ
##ᇂ
##ᆸ
##ᆯ
##ᄁ
##ᅴ
##ᅯ
##ᄐ
##ᅬ
##ᆨ
##0
##ᆷ
##ᅨ
##ᄈ
##ᆻ
##ᄏ
##8
##ᅱ
##ᅣ
##ᅰ
##ᆩ
##ᆶ
##ᆺ
##ᅫ
##ᄑ
##6
##ᆭ
##i
##c
##u
##ᅲ
##ᄄ
##ᄍ
##ᆮ
##5
##ᆽ
##ᇁ
##m
##x
##s
##ᅤ
##ᆹ
##4
##3
##ᄊ
##1
##g
##7
##9
##l
##2
##ᆰ
##ᆬ
##ᆾ
##p
##j
##t
##k
##b
##ᆲ
##v
##n
##r
##a
##y
##d
##h
##ᆿ
##ᆱ
##f
##e
##℃
##o
##㎡
##z
##ᆴ
##q
##w
##ᆪ
##ㅇ
##○
##ᅥᆼ
##이
##ᅳᆫ
se
sep
##다
##요
##니
##보
정
이
##ᆸ니
정보
##ᆸ니다
##하
##시
##ᅥᆸ
##인
##ᅳᆯ
##ᅡᆫ
##ᅥᆫ
##ᅧᆫ
##는
##스
##해
##ᅳᄅ
주
##ᅪᆨ
##ᅪᆨ인
##에
##수
##습니다
##ᅡᆼ
가
있
##가
##확인
정보확인
##ᅥᆸ수
##고
##ᅡᆯ
##게
##서
##청
##ᅮᆫ
##접수
지
정보접수
##어
요
##을
##ᅡ요
요청
##면
##ᅳᆼ
##은
##ᅡᆨ
##ᅢᆨ
##ᅩᆨ
##ᅡᄅ
시
##ᅩᆼ
##기
##ᆻ습니다
##데
##ᅡᆷ
##지
##ᅳ리
어
##ᅡᄋ
##ᅳᆷ
접
##근
수
접근
##ᅧᆼ
##주
##ᅮᆯ
##ᅣᆨ
안
##ᅦ요
##문
##ᅮᆷ
##겠습니다
##도
##ᅯᆫ
##나요
되
저
##를
거
##리
##로
주시
##장
##드리
제
안ᄂ
##되
##ᅳ로
아
##는데
##색
하
오
질
##세요
질문
##합니다
##려
##행
여
##품
##하시
##한
예
##능
해
##사
있습니다
서
##와
보
##으로
##ᅡᆷ색
가능
조
정보ᄐ
정보탐색
신
##원
##ᅧᆯ
##거
고
피
마
도
##에서
##약
약
##의
구
예약
##제
동
##실
##용
안내
##ᅡ악
##변
기
##ᅪᆫ
주변
##트
##어요
##성
##파악
주변파악
할
##매
##일
##반
전
##료
##까요
진
##입니다
##ᅵᆼ
##금
##드리겠습니다
##만
동반
##님
##아
상
##나
말
##주행
동반주행
도와
##오
결
##ᅦᆫ
##구
##전
대
드리
사
입
확인
##야
##정
##디
##속
인
##비
##여
##객
##ᆻ는데
##할
물
##드
여기
고객
바ᄅ
##달
없
부
이ᄇ
##건
감
##으
네
약속
중
매
##라
다
고객님
결제
##송
있는
할인
있나요
한
어디
구매
##씀
말씀
##까
##ᅡᆮ
##네요
##시면
##죠
현
신청
이벤
##표
도와드리겠습니다
모
그ᄅ
##터
##자
세
좀
##팅
물건
##호
##셔
##류
##상
상품
##ᆸ시
같
피팅
##하고
##ᅥᆷ
혹
##치
##전달
물건전달
##ᅳᆸ
재
##과
##가요
##ᆸ시오
매장
이벤트
##게요
##부
##ᅧᆼ하
혹시
##재
추
됩니다
알
##ᆻ어요
따ᄅ
##당
##은데
건
##ᅡ리
드리겠습니다
##급
##러
##증
맞
##선
번
##ᅧᆼ하세요
안녕하세요
##림
##되어
발
##ᅦ이
주세요
##ᅵᆫ
제가
##분
##룸
##간
주시면
##차
와
##록
피팅룸
##거림
서성
서성거림
##물
말씀해
위
후
작
제품
싶
가능합니다
##번
##을까요
##ᅩᆫ
자리
현재
들
##ᆺ이
##락
##무
##이ᄌ
이용
##ᅣᆼ
##층
바라
##탁
적
내
바랍니다
받
카
필
부탁
##대
것
##쪽
##드립니다
##00
수선
##저
원
번호
어ᄄ
안내해
되나요
죄
죄송
##ᅢᆼ
진료
무
관
인사
필요
있을까요
접수
대기
##들
##희
들어
차
저희
##우
진행
주십시오
수락
티
##현
지금
##신
발급
기다
재고
사이ᄌ
감정
경
##져
##표현
주문
감정표현
##국
전시
##까지
##ᅦᆺ
이거
##회
해당
감사
로
##하시면
##하신
주시기
잠
배
##소
다시
##하는
너
##던
##려주
개
##명
세일
많
분
두
##하지
않
##천
##00원
준
싶은데
문
옷
작성
##화
영
##ᇂ게
바로
관ᄅ
그
신청서
방
계
##하면
##다고
서류
다ᄅ
미
일
메
##관
주차
비
찾
##됩니다
소
경우
등
나
##ᅡ와
부탁드립니다
##식
로보
사이즈
감사합니다
##ᅳ를
##ᅥᆯ
티ᄏ
000원
##래
##ᅡ음
있어요
##겨
##ᆯ까요
더
##비스
불
추천
처
티켓
##크
##마
잠시
위치
약국
다른
죄송합니다
하는데
참
서비스
##ᆯ게요
##ᅡ오
##해서
배송
##동
가능한
따로
##워
##겠어요
입어
##된
##진
##받
포
그럼
준비
자
가져
##권
##려고
입장
##뉴
때
너무
##단
증
바
##늘
##ᅨ요
의
##으면
##랑
직
앞
해주
지원
번호표
뭐
시간
##산
오늘
선
창
돼
##ᅥᆨ
메뉴
스
##아요
##이ᄐ
확인해
##영
##할게요
##수증
##출
못
중입니다
##피
화
##하겠습니다
자리이ᄐ
자리이탈
##던데
##께
될까요
그러
##예요
아니
되는
##방
걸
##히
우
사ᄅ
##복
##이라
남
로봇이
어떤
잘
게
민
창구
얼
##ᅳ려
##두
##납
코
관련
##폰
##하실
잠시만
##세
##어서
좋
등록
음
영수증
##ᅡ용
##ᅳᆨ
##공
##울
다음
##십시오
##하게
##든
##에는
##했습니다
같은데
새
어떠
분실
검
##되었습니다
사용
어떻게
추가
돼요
저를
판
민원
##도록
##ᅡ운
알려주
10
##래요
입어보
출
연
##부터
생
보여
양
##격
시ᄌ
수납
합니다
##며
종
##내
성
##역
##생
##르
편
##해야
금
##버
##셔서
##입
##있
##체
##처
판매
건가요
##하시는
##바
1층
장
기다려
##인가요
어디서
##하려고
##ᆯ이
있는데
##셔야
##업
##함
들어가
##아서
분실물
문의
이ᄅ
##월
왔는데
명
무료
병
통
##되는
저기
한번
##유
하겠습니다
공
있으
##키
적용
먹
가능하시
하나요
카드
##할까요
방문
호
노
유
외
뽀
##주시면
없습니다
하나
##민
어디로
##카
##계
##ᅡ를
##이드
##주세요
중인
##ᅦ스
참여
뽑
반
가능한가요
어려
가능하십니다
##겠
제공
주실
사람
##경
먼
전시회
##네
##ᆯ리
##에게
제출
가능할까요
가격
먼저
##모
행
##하여
드
##티
치
곳
여기서
근
옆
##적
거죠
##후
##택
체
##ᆫ드
어디에
##해요
얼마
기다려주
##라고
##액
병원
담
가져다
##핑
맞나요
완
쇼
복
##하지만
전달
##운
환
##쪽에
가장
되죠
##ᅦᆫ터
##코
##력
나와
재고가
않습니다
##편
없나요
##음
함
현금
며
##주시
처리
##개
직원
##ᅮ폰
시작
##등
설
##말
2층
##ᅡ우
##른
가이드
실
거예요
보고
단
##봐
##테
함께
##미
그런
조회
에
이상
많이
만
교
##항
따라와
추천해
##ᆯ라
##접
완료
아이
죄송하지만
카운
카운터
모두
운
봐
지원금
둘
필요한
앉
언
식
##ᆸ니까
점
##ᅳᆯᄅ
색
##했는데
몇
원하시는
최
화장
신분
하는
##블
맞습니다
열
이용해
패
##프
##타
##페
##험
관람
30
##인데
##외
##ᆸ습니다
##녀
쇼핑
의류
나오
불가
##니까
언제
신기
##너
##ᅵᆨ
##드려
##년
또
신분증
쿠폰
정도
파
##피스
가면
화장실
목
도와드리
받을
가지
##드를
겨
착
##요일
있다고
##드로
달
주신
신고
받아
##ᅳ래
##쪽으로
뒤
##토
##더
그러면
원피스
제품은
같은
회
##본
못했습니다
결과
인식
##츠
테이
피팅룸은
커
보이
주시길
주소
사ᄋ
같아요
종류
담당
당
건물
같이
성함
주시겠어요
##트를
참고
날
모르
상품은
오른
해서
카페
계산
가야
행사
어서
조금
사진
##담
##별
남아
20
##들이
##길
직접
라
내용
진료실
선물
둘러
별
##점
청
테이블
##직
이름
##법
하고
##있는
##번호
안내를
##발
##절
##에요
작성해
줄
초
##사이ᄌ
##ᆫ차
맞죠
있는지
전화
찾고
마음
금액
괘
할인이
##섯
가시면
그ᄂ
##ᆫ찮
괜찮
대기해
##려면
##위
있으면
입구
##석
##ᅦ이터
매장은
들었는데
빨
착용
그냥
주민
##시는
끄
블ᄅ
센터
##기가
마음에
로봇
본
##배
적어
이번
따라오
드리고
##이나
이벤트는
##플
총
아까
음료
바지
##시간
##족
볼
페이
중에
및
쓰
앞에
##주실
그리
결제해
택
어렵습니다
##돼
##셨
겨울
##측
위치해
친
하면
저번
품
둘러보
##난
해주세요
니
있죠
증정
가능하
예정
따라
##슨
해야
옆에
##술
##다면
알겠습니다
##감
대상
휴
드립니다
##준
##이랑
특
##명서
##조
입어보고
##불
왔어요
키
집
건데
##시고
##다가
벌
신기하
색상
##딩
그런데
버
준비해
김
##했
발급받
싶어요
보겠습니다
온
살
##통
찾아
없는
올게요
##서요
상담
복지
3층
매장에서
전시관
##셔도
##등록
불러
정ᄒ
##판
나가
양해
있지
얼마나
말씀하신
쪽
##량
혼
손
##안
##움
간
취
##사이즈
서비스를
알아
옷을
음식
체크
포인
##파
연락
##혀
정말
기다리
부탁드려
된
이러
안에
##으실
##각
전에
##어버
끝
있어
##짜
오후
없어요
포장
##다던데
하는데요
정보를
##되나요
##는지
설명
할부
부분
잃
지하
##한테
위해
이해
##메
말고
작품
##열
이벤트가
잃어버
업
택배
보내
디
##ᅨ택
대기실
##ᅳ라
써
##노
약국이
왼
처음
##해도
무슨
##애
준비되어
##ᅳ러
##ᆻ네요
##ᆯ리ᄇ
##거든
했는데
이렇게
변
##거든요
최대
도움
상품이
사항
브래
##다는
##ᆯ로
모든
피팅룸이
재키
필요합니다
##립
##즈
##겠네요
##추
과
아직
혜택
##ᅡ로
엘리ᄇ
정확
엘리베이터
##ᅦ이지
사업
왜
보관
##린
여성
코너
##환
후에
##머
##이라고
결제할게요
때문
편하게
##픈
옷이
고객님의
##태
##목
##있습니다
맡
주셔야
사람이
##자가
찍
여권
다ᄋ
리
것도
컬
##트로
미리
이런
비용
##인이
불가능
입을
신청서를
저기요
이벤트를
가족
재킷
표
불편
하던데
시간이
해요
맛이
처방
##서를
브랜드
다양
올
할게요
##란
대한
알려
서류를
알려주세요
혼자
번호표를
국
검사
번호를
가져다드리겠습니다
완료되었습니다
이동
자세
포인트
##하러
순
카드로
##하나요
진단
뜨
때문에
결제는
매장에
소요
있어서
영업
##옷
##개월
임
기간
##첨
##포
방법
큰
근데
뭐가
적립
나ᄋ
진열
컬러
##심
가지고
제품이
넣
갈
50
대해
주민등록
##득
##령
##ᅡ야
파악
##중
타
원하시면
##보다
주시고
데
장애
좌
##육
이해하지
저번에
들어오
가방
사이즈가
하ᄅ
별도
##인지
오십시오
저는
증상
##착
##백
##습니까
패딩
티셔
##카드
##느
카운터에서
판매하고
자리로
예약을
허
##될
성인
상품을
주셔서
##ᅧ고
##연
친구
##사항
##갑
용
있네요
시즌
제품을
##ᅦ이크
##들은
추천드립니다
##결
입력
어느
근처
중이
데스
애
따라오시면
예정입니다
##ᆻ던
되어
##설
##으러
뭔
티켓을
약국은
곳이
빨리
수선실
아우
##견
##ᆷ이
지역
걸로
##대로
인기
오픈
나온
##스크
주실래요
아무
##다니
세트
변경
15
없이
##으려
무료로
##주시겠어요
##되고
우선
주차장
##지만
가져와
예약하고
주문할게요
거울
구매하고
작가
증명서
다섯
후드
안녕
##밥
100
기준
##에서는
##셨습니다
##막
꼭
받고
진행하고
##ᅪᆯ
##그
주는
##으시면
출력
천
가격이
##종
##ᆩ에
제공해
아닌
##학
입어봐
느
##드릴게요
##적으로
발급해
보여주시면
많은
그리고
니트
필요하시면
1층에
성함과
보험
##긴
교환
사이즈는
##ᆻ나요
것으로
이쪽
부탁드려요
기다려주세요
층
커피
##ᅪᆯ영
워
##임
토
##ᆼ금
서류는
핸드
통해
자동
서비스는
서류가
000원입니다
일단
비치
선택
##커
창구에서
될
있으니
오세요
적혀
##에도
궁금
홈
야
##ᆯ러
올라
품절
##빙
예약해
앉아
업무
산
팔
잃어버려
면
가ᄁ
해주시
##ᅡ라
내역
진짜
##줄
##께서
비ᄊ
시작하겠습니다
강
오른쪽
##ᆻ는데요
##지는
상품으로
##서류
드리도록
가능해요
영수증을
티셔츠
예매
누
구비
##하기
구매하면
##하려면
##ᅥᆯ어
우측
왔는데요
신상
예상
여기가
전부
데스크
구매할
##사를
##카오
##하셔야
드리는
카카오
와서
##되지
레
수령
##주십시오
##름
위한
##어보
그렇
지난
무인
##들을
피팅룸으로
##영합니다
기재
촬영
개인
##좌
식당
내용을
인식하지
확인됩니다
제출해
급
질문을
치료
가서
##ᅡ의
싶은데요
잔
##ᅳ림
##한데
##자를
##ᆸ게
새로
진료비
##양
지급
##므로
맞아요
##어서요
불가능합니다
##형
장애인
##ᅵᆷ
##ᅯ요
체험
##으신
포함
호출
환영합니다
핸드폰
##리가
##센터
제품으로
뭐예요
천천
##하네요
접수했습니다
도와드리도록
천천히
놓
셔
없을까요
현장
검색
운영
같아서
사이즈로
블랙
1인
제일
그래
다양한
학
##순
2층에
상품권
##은색
여기는
맛있
##기에
먹고
키오
창구로
##디건
가까운
##받을
가져가
##활
같습니다
각
잡
않아
요금
##스타
마ᄅ
검은색
이쪽으로
걸리
진단서
응
매장이
손님
요청하신
올라가
빠ᄅ
삼
생각
참고해
##황
계좌
##아야
##거나
주차는
##었는데
##ᅮᆨ
입고
좋은
##실래요
오래
항
할인되는
아우터
##검
아니면
신청서에
기다려주시면
회원
기능
붙
신청서는
룸
여부
도움이
전달드립니다
길
##페이지
그거
들고
확인되었습니다
내일
##라고요
##곳
지갑
심
##지를
기계
떨어
홈페이지
대리
평
##레
돌
예약이
아이스
##하려
어제
구매하시면
##이트
인터
좌측
10분
테
##투
##ᅡ우스
##탕
수수
발생
자리에
##참
단체
발권
차ᄅ
있으시면
결정
많아서
##없
##씩
감사하겠습니다
##기를
구경
캐
부탁드릴게요
방문해
드려
사고
작가님
후드티
중에서
sn
##이에요
여러
왔습니다
sns
자ᄋ
##휴
주문하신
##하였습니다
##ᆺ한
그러는데
월
주차권
보니까
옷은
##발급
종료
앞에서
설치
답
자세한
많네요
시작합니다
부스
##군
##되면
##받아
##토랑
나왔습니다
예ᄈ
왔
레스
구매하려고
레스토랑
폐
##있는데
언제든
기입
예약은
알고
##ᆷ플
할인된
문의해
##더라고요
가게
전달해
운동
##교
스타
수수료
##리는
드는데
추가로
##넷
##라인
넣어
것이
##장님
있을
제외
직원에게
머
좋아
##존
다녀
뭔가요
오전
30분
가을
##중에
뽑고
이후
##허
현금으로
특별
페이로
##주실래요
좋게
주소를
##ᅳ게
먹어
신발
확인서
카디건
##합
두고
있으며
마련
##마ᄋ
인터넷
위치하고
##념
여름
쿠폰을
이벤트에
##고요
##하시기
코트
담당자
블라우스
온라인
식사
디자
할인을
이벤트입니다
##지가
주행
백
구역
카드를
가져오
공간
계단
법
즐
칸
##강
##션
할인은
준다고
##기는
기다려야
위치를
길이
드릴
입력해
피팅룸에서
계신
전문
##작
경우에는
수선이
메뉴가
대신
채
##시길
없으
고객님이
전시장
나중에
##ᆷ버
##으시는
비치되어
##박
기다려주십시오
없어
본인
알려주시면
##돼요
상태
일정
지참
내에
신기하다
출생
동일
뭘
곳으로
##자는
또는
맨
증빙
##ᅡ래
이게
##거운
세일하는
끝나
할인해
##시기
지나
있도록
좋네요
귀
저에게
마감
##렴
인증
반가
##군요
##깐
수영
##끼
세일은
##신고
방금
키오스크
##십
접수를
다음에
탐색
당첨
셔츠
##ᆺ을
불가합니다
진열되어
쓰면
이미
##이며
환불
휴대
집으로
##규
모르겠어요
할까요
자리가
아닙니다
전화번호
##마다
여섯
늦
뽑아
##일을
기본
##십니다
관련해서
여기에
먹을
##하셔서
qr
##메리
저렴
##걸이
사려고
남아있습니다
사이즈를
희
##인분
##라서
네이
##ᆸ네요
멤버
정장
꼬
##질
샐러
##창
없네요
서비스가
##겠습니까
##론
문제
부서
높
챙
받으실
##머니
딱
적용됩니다
아메리
엄
입어볼
걸려
연락처
잠옷
확인을
일시
바ᄁ
우와
삼성
충
스ᄐ
시에
한복
있다던데
수선은
신상품
거주
종류가
##슈
예약했는데
태
도와드리고
##실로
##사에
마련되어
##초
사실
증정해
##디어
바코
3번
##쳐
##어가
어디예요
필요하신
##생님
착용해
##ᅳᆯ리
사전
##되셨습니다
##ᅳ네요
내부
왼쪽
수도
보호
안내드리겠습니다
재발급
##주로
##드릴
센터에
구매하신
3일
확
##시에
기념
인원
##밖에
물어보
결제가
않고
수영복
무이
##하셨
간단
##다는데
자유
나오는
##ᆻ는지
추첨
상품입니다
농
청바
정확히
모바
모바일
이곳
제품의
##그래
보면
##ᆻ으
맡겨
챙겨
아동
베이지
진료를
##보고
목도
순서
메뉴판
입어볼게요
굿
정산
##카노
빈
##하시고
구매하실
##이라서
##집
코로
##자로
눈
아메리카노
##ᅳ런
##스터
납
물품
물론
원장님
출시
물론입니다
미디어
남성
##대에
번에
멤버십
##켜
선착
선착순
##예
적어주시면
어울
맞ᄎ
적용되는
속
보조
갖
있는데요
구입
##혼
앞쪽
##하십니까
넓
저쪽
잠깐
이름을
입어봐도
웨
##만한
힘
않으
##카드로
저희는
들어가시면
라지
##층에
품목
밑
##이네요
박
프리
##례
오른쪽으로
코로나
##즘
나이
##힌
앱
환자
취소
반갑습니다
##패
이것
계속
얼마ᄋ
5분
##명을
찾으시는
해주시겠어요
##ᆻ다
##정보
매장입니다
고객님께서
말씀을
##셨는데
##겠죠
시술
동의
##치료
상관
만들
정확한
의사
양식
##ᆫ색
없는데
작성하면
골
현대
##제품
재고는
보이네요
무이자
요즘
가능하죠
##ᅡ란
이용하실
##드리도록
건지
사진을
##망
처방전
##이면
혹은
남자
얼마예요
이전
쪽에
혜택이
어디에서
사업자
종이
보건
관련된
도로
안녕하십니까
까
약국을
##쉬
대로
없어서
위주로
3개월
시설
중복
쉬
따
같네요
##ᅳ랑
구매할게요
제한
근처에
이건
보이는
주시나요
##볼
볼게요
날ᄍ
##실은
전용
와도
파는
찍어
비싸
해외
별로
안녕히
답변
아래
##튼
수요일
접수처
불편을
##장이
##자리
영수증은
##ᅳ레스
많아
차량
디자인
사면
신청을
##영수증
앞쪽에
주말
마지
##맨
보실
피팅룸을
배송해
마지막
실례
설명해
##하죠
##주시기
즐거운
##스를
일반
작은
일고
찌
신기하네요
휴대폰
##으려고
##닝
##몰
부탁드려도
이용하시면
##주일
##보겠습니다
몰라
가입
결제할
쪽으로
상관없
출구
해도
그렇게
판매하는
##관계
##이드를
돈
##이는
첫
약을
뒤에
재미
대상으로
##이라는
##축
것을
항목
##하려는데
예상됩니다
1번
납부
12
소요됩니다
빠른
샐러드
안내하겠습니다
외에
##증명서
##획
조회해
적힌
다녀오
프로
입장권
##글
이내
금방
##별로
##하도록
존
출입
뜻
신청하러
당일
곧
하죠
되는데
##한다고
결제를
현금영수증
##ᆨ스
수량
메뉴로
##드리고
별도의
qr코
하려고
##ᆷ을
상이
##라는
싶습니다
목도리
적어야
##킨
가이드를
경우에
증명
도와드릴
조금만
성함을
##살
있던데
운전
##따
##적인
전화로
복도
이름은
저희가
일시불
##같
제시
접수해
가셔서
##하는데
##은품
사은품
해주실래요
표시
##줘요
##과에서
쇼핑백
##ᅦᆯ
한정
파란
책
2번
부탁드리겠습니다
드네요
막
##자의
동안
날짜
님
3층에
주민등록증
비스
신고서
구비되어
와야
신청할
아니라
홍
이따
봐도
호출해
장소
##늬
보시면
크림
나ᄂ
시간은
보이는데
스타일
제휴
##으로는
어린
##허증
작성해야
##톡
같아서요
40
줄이
이벤트로
지갑을
약국에서
11
##ᅳ레
##덟
##째
대해서
관계
생년
##편에
빼
여자
건강
별도로
m사이즈
##웨
##하십시오
##듣
알아듣
빵
예약할
##자에
##번에
줄래요
않은
인기가
필요한데
미디엄
##이요
포토
생년월
##크를
##주신
되는지
좋을
케이크
고르
써야
접수되었습니다
가능한지
##받고
보려고
로봇한테
엘리베이터를
실례합니다
##깅
아파
초코
야외
선생님
화이트
##이고
시키
밖에
##씨
보니
만한
생각보다
##대가
어려운
그렇습니다
##투맨
맨투맨
##이가
아쉬
프런
향
할인하는
000원이
처리해
요청사항
인감
오른쪽에
##위치
들어가면
둘러보고
전체
빨간
##장을
번호는
세트로
좋아요
자동차
똑
##팔
가족관계
바람
생겨
카운터에
문자
편안
화장실은
##ᆻ다고
보러
##해서요
급여
세일이
##뜨
##시까지
메뉴는
라테
찾을
절
보조금
안내가
단추
탄
이걸로
갈게요
##ᆫ드위치
##봐도
거라
자세히
##책
수선을
##워서
사유
##병
##스는
레깅
시까지
##죽
맡기
결제하고
직원을
위치는
전달드리겠습니다
모르겠네요
##잖
왼쪽에
에스
##크림
##짝
##ᆻ거든요
##퍼
받은
##받았습니다
s사이즈
피해
등록은
제공하고
저도
대여
##했어요
파악됩니다
어떡
##ᅡ랑
어딘
일주일
##레이터
여덟
원래
접수가
메뉴입니다
따뜨
넘
필수
파스타
결제하겠습니다
구매가
내려
대기시간
안에서
파란색
##그램
위에
세일을
위임
점심
비용이
매장으로
받았는데
법인
##ᅡ료
체크해
잃어버렸는데
##향
##찌
음료는
##롭게
할부로
##침
찾으러
판매하나요
##하라고
허리
굿즈
주에
앉으면
잃어버린
가는
엄청
##컬
xl
정기
긴
화장실이
오시면
포스터
민원실
곳에
##벌
주시겠습니까
발급을
창구에
조리
봐요
알아보겠습니다
된다고
노란
입구에
##못
신기하네
예약한
발급은
아호
샌드위치
곳은
열한
##주시길
##ᆽ어
사회
진행하는
##스가
와이
##화점
남아있
청소
용어
필요하
주시는
오면
들어와
문화
교육
싶어서요
이번에
##ᅳ라고
##용으로
연결
대리인
폐기
##실이
말을
부모
우리
전시회장
접종
이동해
##지원
공간이
피부
##구나
필요할
진행됩니다
24
##증이
##결제
자유롭게
##도를
서명
상황
밖
관리
에스컬
에스컬레이터
##때
##수를
갑
##드렸습니다
금액이
기다리면
##ᆻ으면
구매를
##증을
수선도
문의를
통장
안쪽에
해서요
이제
저한테
##들도
##고기
어머
걸까요
상시
주문받았습니다
##학생
노란색
무상
알려줄
언제까지
로비
일부
롱
형
친절
규
##가는
배송은
##녁
피팅룸에
보통
가격은
출생신고
도로명
샘플
금요일
가져왔는데
상세
다행
생일
알림
다르
스테이크
운전면
권
소견
시간을
##드리면
편하신
테이블이
평일
플
푸
##사오
##급여
##사오니
소요될
정리
카페는
여부를
제작
잘나
신제품
많은데
잘못
코너에
입어봐야
드레스
##쇼
저녁
도와주세요
##비는
모자
생활
없고
화면
청구
글
있나
##기로
관한
##받으실
제출해야
##대에서
진료실로
결제하면
금일
앉아서
요청해
하셨는데
맛
##쯤
##될까요
신청하려고
품절입니다
자리는
할인하고
이용이
비어
알려주시
##세서
광
##시가
상품의
담아
떨어져
올리
페이스
샤
어디죠
등본
쓰여
데스크에서
첨
어ᄍ
##ᆷ플리
인스타
신청서가
2층으로
일시불로
500원
들어간
소득
들어가도
알려드리겠습니다
감면
새우
들어온
진행해
치즈
백화점
어울리
비슷한
제시해
영상
합
덕
##줄래요
가까
남은
같은데요
찢어
내야
나옵니다
출력해
물리
##자기
스티
학생
바코드를
##하셔도
##분이
상품도
적으면
주문이
등록해
사항을
##찰
프런트
네이버
##쿠폰
가요
뽑아야
신청은
약국에
로봇이랑
##분에
현재는
시켜
직원이
진행하지
등록도
반팔
오신
##들에게
##레이
##권을
생기
##ᆼ크
매운
구두
##으시
자격
확인이
증빙서류
그때
보여드리겠습니다
##번호를
소지
되면
피팅이
기록
입장하시면
##했던
##영하
맞는
##으시고
매장을
000
없으면
제공됩니다
먹었습니다
예약도
번호표는
좌석
맞춤
차를
할인쿠폰
구매한
##차를
여성복
비싼
외국
하나만
커플
##람
##ᆻ죠
사이
잠시만요
호명
뒷
작가님의
##전시
세대
좋겠어요
되게
말하는
기간이
빨간색
##신청
000원의
스카
행사는
즉
##겠는데
미술
##에서도
이용할
##스로
가고
음성
부분이
카카오톡
떼
아기
##층으로
##이체
##로드
종료되었습니다
어린이
수술
예방
바람막
60
##일은
화요일
##츠를
##봐야
20분
##과로
재고를
##볶
##억
팸플리
버튼
움
전송
##라도
소재
액
어플
움직
##페이
테니
##시부터
가십시오
따라오세요
진료확인
개인정보
상의
자리를
무료입니다
지원금은
##했는데요
덕분에
55
싸
##도가
하ᄂ
##해져
대기가
##놓
안내문
##럽
##무늬
등록을
##인데요
이쪽에
##어도
주시고요
동물
봐야
최근
가져다주세요
sns에
전기
하시면
정수
##오니
##사이즈로
##크로
##ᅮᆯ러
명의
흰색
알아서
받으러
오늘은
가능하며
제외하고
이것도
스ᄏ
우편
마네
##트가
들어가는
깜
주사
피자
입장하면
9월
센터에서
활
검사를
##폐
안쪽
안내는
갑자기
##주는
가도
신용
죄송합니다만
확인하겠습니다
받는
받으면
홀
뽑는
종류를
계좌이체
있다면
한다고
구매해
자리에서
창가
다운
물어
##산부
알려주실래요
링
얘
##일까요
옷도
팬
그걸로
##상품
번호로
청바지
올라가시면
##되죠
주문해
기입해
짜
##온
첨부
무어
매장에서는
비용은
발급이
맛있게
##었어요
진행합니다
번호가
나서
앉아도
##독
피팅룸까지
##컨
소매
위치한
사용이
국민
##철
##몬
물리치료
##날
##킹
구체
수납을
##율이
##창구
##찬
##무소
##들의
##명하
##줘
내려가
투
이유
지원금을
추첨을
제대로
##으로도
제품입니다
의미
남녀
의류를
디저
양말
보건소
점심시간
붙어
자주
요청을
한해서
알겠어요
봤는데
신분증과
신규
맞게
임산부
거울이
봉
있게
진료받
에어
않았습니다
##럼
##렛
결제하실
상태입니다
운전면허증
스티커
쇼핑을
가까이
진료실은
원하는
배송도
상담을
선택해
##ᅧᆨ
대표
나머
못하였습니다
상품에
빠
##라는데
절차
지정
접수는
소진
회색
사야
청소년
소견서
정보는
##내역
15분
##으려면
상품들
끊
지난번에
난
도착
다만
유명
##홍
사인
운동복
치마
신청서와
작품을
##꺼
##깔
아니에요
업무를
그래도
제품도
##워요
##단에
쓸
문의는
##등본
따뜻한
##이신
시부터
입장이
사람들이
200
파우
이어
기억
##맞
##하려고요
임대
검진
베이
##표를
##까지만
서비스도
각각
이벤ᄐ
##새
##주차
셀
##친
죄송한데
않는
메뉴를
참여가
떡
신청하면
진행되고
##처럼
조회합니다
발급받을
월요일
##잖아요
트ᄅ
얼음
##되며
##염
방법이
보험사에
즉시
되지
의류는
하루
적혀있는
신분증을
##메뉴
##씨가
핑크
나오나요
##ᅡ르
계약
착석
이벤트도
것은
지원금이
000원에
하는지
나눠
크
검정
운영하
아직도
6개월
멀
##ᆻ고
금액은
위치해있습니다
끝에
중이니
2인분
##시로
있네
##ᅡᆷ에
대화
재난
대기인
도와드렸습니다
##드는
할인받을
보여주세요
빠르게
사본
발견
문자로
위임장
마네킹
##큼
싶어서
쭉
여기로
한국
입장해
달라
인해
교통
층에
##ᆻ을
확인되셨습니다
위치가
포장해
알려주시겠어요
꺼
##샤
필요해요
운동화
높은
날짜를
래
세상
분이
나가실
똑같
##채
안경
헷
이하
코스
외부
면제
헷가
걸릴까요
정가
목요일
이쪽에서
기존
이걸
바꿔
중인가요
들었어요
친구가
##예약
액세서
##취
밀
밥
강아
도와드립니다
관내
신분증만
상이합니다
눌러
불러주세요
자료
카드가
##있네요
가격으로
태그
않으셔도
탄산
##먹
##보험
##칠
후기
추천을
구역으로
희망
##ᅳᆯ로
일행
색깔
행사가
그래요
저렴한
최대한
##홍색
셀프
결제도
참여할
일곱
##ᆯᄅ
##수가
오는
원무
콜라
레깅스
2주
가려면
##으니
가방을
펜
##로는
앉을
##쇄
아프
쿠
##깨
수선해
기준으로
비싸네요
많습니다
소개
##검진
지금부터
티켓은
사용할
도움을
속옷
정신
지원해
당장
이월
기초
괜찮습니다
가죽
##주면
유니
##널
좋은데
수납은
교복
스카프
결혼
확인합니다
##드시
작성하시면
배송이
최소
##기에서
타고
##효
골라
들어요
##려고요
키오스크에서
몰라서
##경하
홈페이지에서
맞는지
##복지
왼쪽으로
주민등록등본
확인하고
해주시면
뒤쪽에
진료실이
풀
말해
가격에
##일에
묻
꽃
갖다
가족관계증명서
##ᆸ스
##집니다
상품들은
좋습니다
예약하면
도와주시겠어요
그린
놓고
예쁜
주문은
아이가
건물에
궁금한
슈
안쪽으로
필요한가요
선물할
있던
해드리겠습니다
건너
해주실
자동으로
운영하고
스몰
동일한
여ᄍ
##일이
편안한
##급자
옷걸이
증상을
탈
중이라
그려
받으
혀
차례
요청사항을
부담
이내에
텀
재입
민원을
기다리시면
알아듣지
##숍
##플ᄅ
이주
어디인가요
세부
##블러
원피스는
텀블러
앞으로
드는
수선실에서
누르
우측에
네이비
18
가정
여행
해물
신청해
서빙
괜찮을까요
응모
튀
개별
##인의
##김
병원에서
하실
서울
엑스
잡아
이따가
##기도
역
해줄
올려주
파악하지
대기인원
이용에
대기실에서
##치를
##찌개
##얼
응대
케이
있고
스커
힘들
하신
무스
테이블에
##가입
열두
센터로
왔거든요
##리로
확인할
다니
신청이
병원에
##ᅡ우처
##보실
위해서
그렇군요
##장에
조끼
말합니다
와인
##ᅦ스트
색상이
아파서
4층
안전
번만
기재해
놔
##남
##잔
필요하면
qr코드
불러주시면
저쪽에
등산
놀라
로비에
##손
##앙
##주셔서
하네요
측
##서가
할인되나요
물건을
따른
쿠폰은
주민센터
블루
회원가입
딸
수는
사이드
반드시
##실에
바지는
충전
13
않네요
옷으로
종류의
사항이
내역을
인원이
콘
##시설
그레이
경품
확인했습니다
남아있는
잘나가는
매대
신청하는
##졌어요
서류에
베이지색
폐기물
떡볶
문자를
얼마인가요
영수증도
한해
뭔지
아웃
##데요
수액
##실에서
중앙
##분의
##국수
색상은
하야
여긴
직원분
##었습니다
카메
공연
은
##스크를
일요일
##티슈
가져다주시겠어요
##주시고
얘기
주나요
물티슈
이용하고
김치
취득
바우처
10월
에이
##사가
명이
정확하게
여쭤
1년
약국으로
tv
빙
##ᅦᆺ이
신속
현황
준비서류
입구에서
##인가
주머니
보네요
도와주실
방향
하나씩
간단한
벽
휘
##브
##펜
영화
통신
치워
지금은
곳에서
까지
여기에서
매대에
할인가
내용은
초밥
둘러보시고
##라스
발송
개의
##필
창구가
넓은
꽤
##수납
초록
괜찮은
혜택을
나이키
매장에는
세일하고
허가
전문점
꽂
##웨어
아홉시
무스탕
##숙
있습니까
시스
예약할게요
모르겠는데
이름이
세대주
루
갔다
수가
개명
준다던데
칸에
이ᄈ
하지
싶은
버려주
해주시나요
바람막이
##센
듣
그런지
또한
원피스를
여성용
기모
결제하시면
않아서
지난주
##하시길
해결
부과
결제하려고
번째
유효
치킨
괜찮아요
바코드
골프
##기간
##트는
제품에
작성하는
양이
##ᅳ라이
어깨
##되었으
의견
알려주실
있어야
지하에
걸려요
되고
되겠습니다
열리
##북
일을
선물을
택배로
쌀
##렌
##답
하시
내에서
해주시고
문의사항
음식이
대기실은
엑스레이
입금
말씀하시는
##물을
의류가
써도
##물은
배치
작품은
수선실이
##라면
혼인
##지에
##사무소
없어서요
행복
둘러볼게요
예쁘네요
양육
대상자
일곱시
아쉽네요
70
다리
##ᆻ었는데
거기
할인행
##통이
필요하실
배송비
어떡하죠
인스타그램
##베
##서는
고장
나라
##루
주택
받으신
티켓팅
양도
런
##이시
##일로
없을
취업
무인수납
포토존
##지원금
##까지는
유료
행사를
식품
격
없으며
갖고
25
##값
계산은
##량이
##서에
보여드리면
편한
##스트
##ᅳ린
##ᅢᆼ신
배가
문의하신
먹는
원두
지금도
카드는
66
##즈를
##이니
시원
감자
어딘지
##처리
처방받
##폼
액세서리
##ᆨᄂ
가려고
맞은
감사해요
계산해
새로운
문제가
##드리는
싶네요
상품권으로
적용이
학교
도장
토요일
돌아
캠
줘요
수당
##드린
분홍색
일이
##접종
유명한
##꾸
주면
##하십니다
전시는
창고
반품
커서
예약하려고
발행
파나요
그림
아닌가요
##아와
코너로
인터넷에서
협
참여하고
임신
드렸습니다
4인
##스ᄐ
추후
나와요
##패딩
구체적으로
크게
##수님
구제
주문을
3층으로
발생합니다
초록색
퇴
##뿐
들어서
##검사
##xl
티켓으로
뭐죠
장갑
병원은
신분증이
쿠키
5층
퍼
아픈
가능하신
그르
환경
하지만
원피스가
들었는데요
기간은
버튼을
브ᄅ
대형
1층으로
1층에서
맘에
편의
입은
작성할
때는
우비
사러
제출할
청년
있어서요
시스테
정책
##져서
사랑
행정
##학교
활용
드릴게요
##라색
제공되고
처리가
응급
온라인으로
광고
하셨
보유
없죠
한데
재산
건가
언제쯤
언제든지
##ᆼ장
고민
도대
##과는
연어
나와있는데
쿠폰이
나가셔서
증상이
도대체
##보리
##스러
국가
진행되는
거주지
옥
##려는데
만든
코너에서
좌측에
300
갱신
헤
##ᆺ데
##봉
겁니다
대체
넉ᄂ
##더니
따라오십시오
타임
1인분
저렴하게
연락처를
런치
넉넉
주차를
고등
##전에
작년
롯데
스무
이곳에서
맞춰
부대
올려주시면
##면에
##구니
매표
수선하고
등의
시간에
드실
바지를
볼펜
21
베스트
##이어
해주셔야
영수증이
분실물을
스포
관련한
##밀
대기실이
재킷은
받아야
밝
제출하시면
##하셨습니다
진료는
000원을
들어갈
인식이
페이백
##정을
경량
기능을
중으로
##잡
##소득
하얀색
독
벨
제도
주변에
주문해도
재밌
다행이네요
흡
인식해
건데요
누가
헷갈리
80
습
정보가
어른
##ᅧᆼ외
정형외
빙수
##칸
##구이
내가
배송을
포인트로
##맞이
##금액
진료가
티켓이
카페가
취급
컬러는
양식을
##주셔야
시간대
##바지
반대
에그
겨울옷
휴무
연락드리겠습니다
영업시간
결혼식
##볼게요
말도
##비용
원활
작성하신
살짝
맛있어
예방접종
##지고
구청
기장
어딨어요
##관에서
참가
의자
본인이
분의
가이드해
계시면
생계
어려우
방법을
롱패딩
탕
##놔
##34
신기해요
알아봐
챙겨와
##켓
##푸
예술
나왔어요
목걸이
택배비
사항은
재킷을
스포츠
중이라고
고객님께
남겨
주소로
부분을
히
##파요
정상
자꾸
실시
20대
방법은
b동
##컵
##하신다면
아이보리
내부에
##ᆻ다가
##하니까
약이
닫
전시를
걸어
출산
쇼핑몰
해설
줄여
김에
답변으로
나머지
라인
보라색
걸린
용도
밑에
여기요
계세요
느ᄁ
대해서는
격리
연고
오라고
도슨
할머니
참고하시기
컬러가
하려
를
가라고
가운
##주시나요
인식했습니다
수수료는
##되네요
마스크
인한
나와있는
화장실을
휴게
##지면
아파요
체온
바뀌
4번
해당하는
토마
깔
##ᅮ어
안으로
주차증
나는
공동
가이드가
실물
관람객
##이므로
도서
할인율이
걸어가
목티
특성
처음이라
##써
저와
스웨
어울리는
얼리
당첨돼
주스
지불
보여주면
출시된
와이셔
생기면
특성상
접수하시면
계단을
컵
신한
교수님
회사
선물로
닭
문이
계획
소상
의자가
코너를
형태
그려진
##설이
사이즈도
서비스로
종류는
찾아가
##시나요
주로
구매는
편히
카드사
가능하다고
구비서류
잡고
꽉
##이죠
제로
자체
충분
##칙
제품들은
##식을
의자에
스파
라이
리더
소상공
##자와
제거
적는
데려
오른쪽에서
요리
찾겠어요
##복을
걸려있는
단추가
크네요
초등
##빵
이사
##여서
대기하셔야
군
사라
22
##아오
질문에
선호
회사에
어울릴
##있던데
가이드는
색상으로
발급받아
국내
팸플릿
습득
지인
##징
매주
옷에
신청서만
공사
늦게
접수처에서
##어를
구성
신청하려면
주차했는데
##단을
아니요
창구는
##ᅳ라는
얼리버
괴
##돌
##으니까
사용하실
근로
모르겠
로봇은
체크하면
검정색
##엔
##받는
뽑으시고
전시회를
빨대
보호자
꽂아
토마토
16
복잡
만약
날이
한정판
강아지
##사ᄋ
거는
넥
모자를
문을
준비된
계산할게요
증정하는
예약했는데요
존재
사망
로제
목이
뜻이
인터넷으로
외국인
##리고
전까지
분들
입장하려고
며칠
구경하고
남성용
##같이
23
예약하신
공용
흡연
이야
되나
원내
이름과
요금이
원장님께
아노
구매해야
##마트
현금결제
앉고
팝
받아주십시오
전시관에서
##카드는
기계가
진료확인서
에어컨
##ᆻ나
##하며
##고리
서비스의
바다
사용하고
제출하면
불러주십시오
지하철
입을만한
채널
오프
픽
##치가
건축
들어갑니다
했는데요
싸게
아노락
란
##드ᄅ
##ᆯ체
가구
##ᅢᆨ스
##물관
위치에서
의료
사려
진단서를
매표소
소상공인
하의
##룩
##농
##약국
##류는
많아요
하나는
봐주세요
갈아
결정할게요
생년월일을
주의
##면서
질문해
통합
잃어버렸어요
데스크에
담당자분
픽업
확인하실
부족
얼마죠
기다려주시기
##점이
업로드
친구랑
호명해
##벼
##디다
##00원입니다
그곳
메인
자가
##ᆯ론
디자인이
##박이
##센트
옥상
##짜리
아디다
구조
##료는
축
방송
보여요
보여주신
계산대에서
지급됩니다
미술관
구매했는데
접수하면
않나요
소주
관람하면
30일
만들어
짐
아주
오고
출차
눈이
탈의
그릇
칼
대기하시면
앞접
##둥
신고서를
테이블로
들어오시면
주차장에
가기
맞을
맞을까요
냉
민원접수
관람하실
##판이
시즌오
느끼
비어있는
캠핑
조각
내면
얼리버드
가실
##는데요
##한다는
받아요
##다고요
숏
대리인이
않으며
주문하면
민원은
쓰는
쓰고
기다리고
불가능한
수면
고마ᄋ
세일도
있으나
대기실로
손님이
프로그램
이름으로
저번달
일정을
디저트
넥타
늘
##ᆷ에
##홀
그대로
오늘부터
장만
##율
부과됩니다
신청해야
##분들이
어려울
포함된
vi
##뷰
##링
하셔서
처리를
집에
측정
vip
##벨
##카ᄅ
##로로
때까지
오늘도
살게요
기념품
트레이
있다는
고객님을
할인됩니다
##러스
개씩
분실물은
이후에
귀걸이
dp
쇼핑에
상관없이
어딘가요
휠체
##사로
##자ᄋ
##프라
##인과
##전화
그건
비니
우산
완료되면
건강검진
스웨터
굉장
클리
##찍
##보장
##스에
##제를
인쇄
재료
의상
초진
레드
예약자
등록증
수수료가
출입구
전송해
기억이
##ᆻ다는
오류
##성년
않아요
통증이
날씨가
증명서를
##이신지
유효기간
##뇨
##습
오디
##금이
세시
준비합니다
목적
주차장은
다릅니다
망
##ᆯ려
전자
접수된
##졌는데
로봇이네
창구를
드시고
결제해도
부스에서
어쩌
텐
값
거면
사이트
엄마
순서가
끊어
찜
##주의
해줘요
볶
##매장
##과에
대기번호
보관함
표를
다양하게
갈색
포함되어
동일하게
탐색합니다
프런트에서
되십시오
쟁
옷들
그게
준비해야
의심
지원이
화장실에
사회보장
##ᆲ은
도와주실래요
개가
바지가
겨울에
긴급
8월
수유
##분들
보관하고
종이에
와이파
계약서
##봄
##화폐
방역
해주나요
가격대가
정해져
읽
오겠습니다
보는
조심
이벤트인가요
노인
내용이
발급받으신
##안내
생년월일
##하다가
고객센터
직진
가져다주실래요
##탑
보이시는
예약했어요
다녀와
순서대로
qr코드를
아홉
정부
##골
수제
주문한
개월
분실물이
확실
자율
마네킹이
사는
지역화폐
다운로드
스커트
##첩
가스
예약해야
이용을
배우
미성년
##단계
설명을
산모
움직이
이어지는
시즌오프
마시고
버터
수선실에
후드티는
어쩔
내려가시면
지난주에
##풍
수급자
신체
말씀드리겠습니다
상품과
##동산
돼서
숍
음료를
##밥이
스타일을
굉장히
부동산
##관이
포획
해주는
적용해
카카오페이
##균
매장의
##절이
주문할
금지
벌써
부서로
2인
36
어두
이거랑
스태
끝난
보건증
슬ᄅ
훼
우체
종합
엘리베이터는
엘리베이터가
설치되어
가져오면
처방전을
수량이
고마워요
명하
줘
차이가
뭐라고
범
약간
입점
부가
수선해야
##복은
실내
부스는
전화번호를
박물관
핑크색
시그
거라서
전산
분위
일회
위치로
앞치
번호표부터
스마트
편에
옆에서
받았습니다
티셔츠가
부모님
시그니
개만
수납할
나올
신기한
작품이
룸이
평소
머리
길이가
고르신
은행
시그니처
##78
주워
##지로
원하신다면
사이즈의
등록된
##석에
벌까지
리뷰
밤
##냐
가벼
확인서를
##선생님
그쪽으로
적용되어
전시회는
근방
받아볼
입구로
기재되어
기계에서
주차권을
좋겠는데
##있어요
고객님들
세탁
작업
진료예약
반입
주소는
브랜드는
전부입니다
의사선생님
하나랑
아디다스
훼손
##ᆻ어
핫
구매하는
들어가서
적용되나요
적립도
150
올리면
클
##꼬
##하세요
고기
##금을
할인도
받으려면
의무
##이라면
게시
금액을
증상은
아무리
쇼핑백에
알려줄래요
화면에
45
##ᆨ정
시행
걱정
재고도
문진
환자가
음식을
처음인데
패딩을
궁금하신
플래
##셜
마침
구경하
들었습니다
제공되는
폐업
제외한
##상품권
5번
##틀
경과
##래도
괜찮네요
시원한
##악
지점
접수할
접수하실
방식
일찍
소스
소파
실수
완료되셨습니다
수선실은
걸리나요
길을
트레이닝
끈
폭
##10
시로
맞추
배너
적용된
계산대
올려
쓰여있는
할인행사
##자라
했어요
상품만
단위
거울은
아웃렛
44
하단에
마카ᄅ
사용해
되었습니다
테니까
일행이
마카롱
인적
맵
힘드
원활한
##냉
##시키
##데스크
경우는
더우
이루어
패션
벗
임대차
통신사
끼
레이
##하네
분류
##키니
그래서
해줄래요
한잔
등이
통해서
오픈한
빈자리
떡볶이
3인분
##ᅮᆯ렛
옮
피카
안내드립니다
찾는
등을
주소지
쉴
밖에서
파우치를
앞접시
입니다
어머니
고양
그쪽
비키니
못했
파스ᄐ
커버
가방이
프린
다리가
우체국
##드랑
##하거나
작성하고
낮
쇼핑센터
##배송
데스크는
캐주
저거
도수
입장을
##점검
금액의
올해
상품권을
끝났나요
찢어진
##친구
##해진
##리지
경찰
찾으실
통지
##민원
리더기에
이야기
일회용
압
보다
신청하고
팀
배출
작성하셔야
##두고
옷걸이에
보입니다
조건
부착
분할
추천드리겠습니다
메뉴에
참여하려면
아무래도
촬영이
볶음
##빡
가주시면
##곤
해보고
여기도
옷들이
사용하시면
방문하셔서
##겠다
찍고
신발은
구역에
현대카드로
운영하는
느낌
a동
##굴
##하시려면
해드리고
예약했습니다
예약했
알레
대기해야
##생활
분실물로
에코
알려줘요
적혀있는데
여부는
부스가
알레르
요청하시면
조사
영문
입장은
선글
##ᆯ링
이동하시면
허리가
용어가
핸드폰을
칸이
위해서는
##귀
##빠
가축
짐이
되시길
약은
입원
점이
입구가
가져와야
이벤트라고
1회
승
확인은
##광
부탁해요
안내해드리겠습니다
반려
##셨던
동의서
##으라고
##다섯
##수록
##가스
##릿
##자에게
준다는
##시간이
적립해
아이스크림
일정이
대기시간은
깜짝
##시다가
##가락
제3
보상
신청한
바구니
추가해
나가시면
싼
페
지방
결제하는
적당
입장할
지원됩니다
##틱
달에
브랜드가
키오스크를
걸릴
좋겠네요
경우에만
필요하다고
##스러운
캐주얼
블로
##서비스
주문하겠습니다
배달
비워
등록이
##음료
앉으시면
국외
레몬
##하셨던
시킬
와이셔츠
28
수저
##ᅦᆫ치
대단
##물이
##무원
##버지
부분만
데스크로
검색해
1인당
이곳에
모데
세팅
이거는
미만
둘러봐도
주차장이
기능성
왔을
환불이
깜빡
피카소
7일
##싱
##원에서
등기
코트를
좋을까요
테이크
특정
색상도
뼈
##턴
인정
별관
과일
리필
할인쿠폰을
취득세
##스럽
##셉
음식은
진열돼
되어있는데
길어서
까먹
앉을게요
가디건
보시고
##과의
두겠습니다
빅
사용은
패딩이
업무는
환불은
플러스
무엇이
듣고
마리
트
##쇠
##드러
거랑
동생
##비를
것입니다
명품
육
실업
실패
이상의
교정
열쇠
레스토랑은
##똑
##이를
드리면
보여주실래요
티셔츠를
똑똑
최근에
숙
거리가
##된다고
방문하시면
대기실에
데나
가을맞이
물어볼게요
스캐
봉투
팝업
앞치마
##수는
없나
##이라도
파티
당연
내용에
쓰나요
발급받고
포장도
##충
소지품
시럽
하네
돋
구분
##드에
구매하겠습니다
같던데
공무원
여권을
보험사
쏘
무늬
좋아서
시작됩니다
만나
갈아입
26
아ᄋ
족
작동
티켓의
방문하신
증정하고
주민등록번호
궁금한데
기능이
건강보험
휠체어
아트
##의류
진행될
가져올게요
농업
굿즈를
에스컬레이터를
재난지원금
소개해
##드름
##로도
염
보장
고구
사정
모양
접수창구
주문하고
해당되는
두꺼
##방법
어렵네요
사람들
##모데
가져다주실
목록
중이오니
진료비가
됩니까
여유
착용이
중이며
귀여
래시가
수집
구매하시는
대기하면
도와드릴게요
받아보실
남았습니다
할부가
피부과
똑같은
루프
##끔
정보도
##수육
수리
여드름
전시실
행거
주소와
떨어ᄄ
다녀올게요
##자료
이혼
##사본
곱
민원신청
##있나요
행사에
##란에
내역이
##받았는데
한복을
뜻합니다
상세히
남겨주시면
플리
##ᆻ더니
했던
졸
한다던데
진행할
두벌
불고기
뽑으면
모르는데
탑
빼고
쟁반
루프탑
##ᅡ워
하셔도
받나요
추가해서
나왔나요
신기해
파자
가능하나
김지
포장은
맡길
면허증
##잖아
카메라
자율점검
##다음
오프라
결재
몸이
와이드
무지
연장
##윈
지하주차
버려주세요
컴
##사와
상속
입양
상품들이
##관람
추가적으로
적용은
적용되고
제공되지
신고를
커플ᄅ
괜찮나요
허니
날짜와
남아있나요
커플룩
주방
없다고
중간
말씀드려
주문하실
빛
##핏
먹으면
##번호는
금액으로
붙여
지갑이
이메
##장은
인상
인형
만큼
선물용
룸은
입장권을
민원실에서
재입고
##확
주고
##을게요
고지
안내데스크
##으셔야
##털
약국입니다
검토
통로
어렵
버스
타이
딸기
베
##튀
##이시면
주까지
해산
보육
고무
필라
민원인
생긴
복수
##주시는
조회를
##더라도
벌을
기다리는
있었던
비치된
권장
배치되어
도슨트
예약해서
기네요
도와줄
##달라고
부부
대기하고
포상
저기서
##카드를
드신
센터는
놓인
붙어있는
밝은
더욱
제조
하늘
##소는
약국의
테이블은
##돼서
알았는데
뽑았는데
탕수육
정보와
##기준
##장으로
추워
분명
신청서도
준비해서
##협
진열된
구경해
브런
크리
공지
공휴
쇼핑이
앤
선착순으로
정형외과
스탬
당연히
27
흑
##하니
##로만
동네
입다가
피팅은
하나도
침
치수
둘러보십시오
잠옷을
스무디
있다
중단
상품이라
접수해야
보여주시겠어요
##봐서
프린트
있다는데
조절
수납하실
카페에서
괜찮은데
삼성페이
확정
졸업
나요
갔는데
##거울
한하여
준다는데
있으니까
제공하지
음료가
부분은
혜택은
##질이
되네요
##님이
한시
구매에
화려
명으로
공공
놀이
뽑으신
처리하는
단말
버려
사항에
대기인원이
에이드
에코백
5층에
브로
##에만
하다니
하더라고요
호피
택에
3층에서
토핑
##ᆻ으니
신용카드로
브런치
17
##몽
있사오니
전단
후기를
경력
문의에
##ᅡ웃
혼잡
야채
동일합니다
돋보
정식
가세요
싫
##사진
말씀하시면
왔네요
미니
의도를
됐네요
교환이나
물어보면
찍어도
밖으로
뒷자리
블로그
실패했습니다
##시다면
##려서
메시
자녀
##복도
가격에서
가져다드리도록
센터를
특이
##했네요
새롭게
##없이
보유하고
##ᆻ네
##콘
전신
##빔
중요
##명이
서류도
##세트
들어가나요
곳을
##코트
모르는
음식물
아닌데
급하게
홈페이지를
자연
신발을
네이비색
사회보장급여
힘드네요
##땡
##로우
해준
기관
##일까지
중에서는
고객님에
신청인
않으면
문의하시기
제공하는
색이
불가한
담당하고
초대
리모데
잠깐만
아픈데
오디오
리모델링
##갈
가능하면
한글
이벤트와
##진료
지원받을
명확
결과는
아이스티
종료된
꺼내
오프라인
땡
##ᇁ밥
이비
##인후
##하시나요
대량
입는
몸
맞으면
##졌네요
사이즈만
스페
무료배송
있으신
실제
관람하고
간호
칸에는
하려면
데려다
이비인후
##클
주ᄎ
예약되나요
##표가
로봇이라
주신다고
손상
이해가
야간
치료를
발권해
따뜻
팸플릿을
데이
##마를
조용
##라던데
시간까지
전시회에
병원이
토지
19
정문
있다니
안돼요
거야
오렌
마쳐
부적
재질
작성해서
티켓에
곳인가요
목도리를
증명할
떠
시청
안내도
##성이
##관은
배송비는
명인데
있으실
처리됩니다
알려드립니다
꿈
덜
##시경
##시켜
신메뉴
말이
작성하여
민트
##모션
이용해도
나오면
써져
패딩은
산부
제한이
몰라서요
##보시면
가나요
해드려
안내합니다
대박이
통원
공원
로봇을
프로모션
1일
##으로만
네시
신청하시면
제품과
받아서
옷의
중인데
##길동
적어주세요
변경하
파악이
아무도
앱으로
77
95
맥
가신
구매하려는데
개를
세일가
옷들을
다르게
지원하고
얼굴
룸으로
카디건은
통장사본
권해
튀김
스페셜
송
##죄
##0사이즈
##되는데
예약해도
드린
받으려고
선정
수납기
찍을
셔츠를
인증을
쇼핑백은
뜻이에요
경찰서
드레
해시
기ᄈ
000원이며
서비스입니다
우유
공식
지원금에
전화를
코너는
올ᄅ
돌려
##명하는
어쩌죠
옮겨
수신
##주년
오실
보시는
피팅을
이용하면
자택
적용되지
뽀로로
점검
겨울용
있어도
있었는데
놓아
블라우스는
돈가스
글씨가
##으시다면
테니스
게이
시ᄁ
되겠죠
##한다던데
##됐습니다
보낼
표기
컬러로
내역서
할인된다고
휴대폰을
사은품을
맞은편에
as
동행
##금은
신청하실
소스는
##콤
2층에서
지난번
재밌네요
규정
사이다
스캔
010
적은
차감
유행
##넛
##했을
넓어서
선생님께
친절히
##전시실
정수기
##사업
500
##ᆷ터
시에서
##약을
전이
어딨는지
경영
영주
신고는
종류에
건물의
발급받은
팔아요
태블
확실히
이체
##문화
예시
구이
##만큼
죄송해요
개까지
계열
됐어요
가능하시며
신분증명서
화장실에서
체크해야
층으로
풍
음성을
사인회
##ᆸ지만
죽
발급됩니다
지원하지
보여서
저기에
##석으로
들어오세요
현장에서
없으니
빈칸
볶음밥
태블릿
하ᄋ
##사의
##아웃
아시나요
보시길
접수증
차가
믿
공개
유아
참고하여
부분에
인감증명서
신용카드
바닥
마요
뵈
차ᄋ
##벅
##략
익
##하다
지문
요구
거리
중에는
할인율
발급기
낫
##셨으면
니ᄐ
색상을
살고
왼편에
과정
이후로
마감되었습니다
기념으로
품목을
문화상품권
텀블러를
초등학생
65
지연
##실을
진통
도와줄래요
##옷이
맞아
두통
자몽
##봤는데
선물포
초과
특별히
정수기가
달라집니다
##되었으며
비닐
수거
##되십니다
부위
이용하려고
##소에
입어보려고
불러드리겠습니다
보내드리겠습니다
궁금해요
예뻐
농협
뜻인가요
해시태
##케이
질문이
엽
신어보
예약확인
할인받으실
구매하려
##대요
##들과
##들렌
옷들은
유모
하나밖에
반바지
특징
팔고
특별한
맡기고
세상에
드레싱
부드러
와서요
전달하겠습니다
선물해
품절이
기재된
오랜
출시되었습니다
룰렛
##프로
##수당
있다가
##게티
해드립니다
신청자
##표는
연예
목소
옷이랑
홍길동
기초생활
브레이크
하셨죠
스파게티
쓰레
혈
##ᅳ레이
##지어
겉
전부터
신청에
맞이
카드와
만족
전시관에
고구마
14
러
##프를
마들렌
모시
분들이
스토
실비
입구는
색상의
##으려고요
팔리는
그렇다면
머신
청바지가
아파트
##나라
가셔야
##어나
질문의
매일
세트를
##상의
일은
스키
적용해서
신기하고
임부
월세
웨딩
이전에
존으로
향이
우편물
놀랍네요
시스템
족발
안에는
보신
대출
사무
결제하신
구매도
모습
추가요
##선을
진행할게요
그나
##하면서
##받으러
복용
신분증이랑
재킷이
넣어주시면
비슷
소진되어
##베리
##보다는
수프
제주
구간
얼룩
문의하시면
통보
흉
찍는
벨을
맵기
##이기
상처
수선할
돼지
105
발급받으실
발급받으시면
순번
후드티를
인증샤
확진
힘든
일요일까지
##반찬
할인해서
일자리
건물이
따라서
니트는
지참해
지참하시면
정장을
웨이
어울리는지
보육료
90
저소득
예약하실
할인되어
말씀이시
세명
차는
전시되어
다음번
드나요
치매
조회하겠습니다
관람을
계산대에
##탕으로
관련해서는
밑반찬
파자마
##니가
##하라는데
수고
##라테
계절
약국으로는
복지에
간장
항원
높습니다
트위
##자랑
주셔도
##수급자
##지와
오리
한다는
##상에
제품만
연령
보여서요
패키
대상이
휴대전화
메뉴판에
넓네요
앱을
홍시
관계로
움직이는
퇴장
마라
이가
아이ᄐ
##셨어요
##부분
것인지
있으므로
202
사유에
맡기면
폐기해
베이글
편의점
2xl
##쌀
오버
##용이
개는
않게
영어
방으로
반납
##콜라
라면
앉아있
본인만
사은품으로
멀어
털
##하던
##지에서
예전에
##구에
인지
수선의
필요하지
찾아서
소음
##받은
괜찮죠
본관
뜯
넣고
붙습니다
지나가
셔츠가
취소해
착석해
탄산수
독감
자르
마시
기대
결제만
배송시키
번호표가
스ᄑ
코드
교체
브랜드의
기계에
환자분
줄이고
대기시간이
푸드
아이테
꾸
##시지가
보려면
진찰
어디다
진료일
멜론
##맛
##공간
만료
만드는
당사
식당은
주차권은
넣어주세요
유니폼
명이서
퍼센트
오랜만
팩
##하다니
##시설이
저랑
마스크를
모ᄃ
세시에
비밀
수납해
들어가실
열다섯
의류도
##시간은
포함한
꺾
실수로
스탬프
##클리
##인트
접시
할아
소독
등급
연계
단어
관람할
받았어요
담당자가
적어도
집에서
보내주세요
떨어진
백신
가져오신
쉼터
직원분께
##뿐만
ct
##츠로
말하면
##구요
##부로
알리
갤러
비가
사이즈와
사이즈별로
준비가
방문해서
참여하실
##력이
진료실에서
있었어요
주차장으로
거울을
##션이
원무과
땡땡
##펴
##하던데
##왔는데
마실
기타
인당
말씀드릴게요
티켓값
양수
완료했습니다
카운터로
언제부터
##다면서요
살펴
알아들
포장해서
검색합니다
좌측으로
중복으로
##레이션
스티커가
인스타그램에
02
31
4층에
##하나
제2
하시는
마치
제품명을
주문도
연청
패드에
정도로
줄은
김민
기다리게
할부는
기준이
면접
생년월일은
건너편
고양이
정보에
##인을
##기에는
안된
좁
##걸리
##아이
결제되었습니다
##맛이
##동물
영수증과
입어보실
생리
##티콘
카페에
##플러
돌봄
확인서가
현대카드
세부내역
돌아가
브라운
미성년자
범죄
컨
거의
##되시면
마을
기프
도와주
구매해도
건의
내과
##함을
드시는
완료됩니다
열어
달고
금액에
업체
##임대
없으므로
화면을
나라에서
조심히
도수치료
돋보기
녹
이외
하셔야
제품들이
작성이
서류만
##크가
자켓
놀ᄅ
열시부터
##페너
로봇에게
찾았어요
나가신
지급해
단체로
구매하려고요
머플러
어떡해요
라이더
##둥이
저번달에
씨
플ᄅ
석
없던데
신청하신
##ᆸ신
재판
추석
카키
##화장
들어가기
참여해
전시회의
하던데요
마네킹에
콜라보
행거에
모시겠습니다
##지도
안심
아침
조합
##원에
적이
적으시면
소유
지원하는
최고
##조끼
패딩조끼
니트가
돌면
답답
이곳은
아쉽지만
필수로
이유가
양말을
에어파
안경을
방향으로
할인가로
의심됩니다
전입신
전입신고
##케이크
##ᆺ도
##곱
오셔서
전환
확인받
내의
대기하겠습니다
불안
입어야
앞서
무료인가요
있지만
오픈했
발생할
##집업
용어를
무엇
쏟
트위드
35
##흐
지도
동영
사장님
중개
결제로
필요해서요
바니
성명
말고는
예쁘
상태를
영업시간은
아이템
카키색
##덤
##ts
##이어서
##곳이
##줄이
핼러
조기
한식
신청도
맞는데
비빔
직장
추가됩니다
##테리
누구
시킬게요
66사이즈
걸어가시면
모르겠네
모델
오렌지
동영상
핼러윈
##바로
##덕
이의
##주스
거지
서서
신세
##구역
감량
이용하는
무거
비교
소화
##르는
완전
완료되어
괜찮을
대상에
과로
진열대
세트메뉴
우측으로
55사이즈
물어봐
꽃무늬
무인수납기
반대편에
깔끔
부적합
신세계
##므라이
##련
##시려면
오므라이
기한
##궁
구매하러
주문하려고
두시
##관리
나타
##르신
무료주차
커튼
##환경
사실을
사전예약
서빙해
쌀쌀
거기서
알레르기
하여
주거
마일
동사무소
대기하는
계시는
입장하실
좋겠습니다
공기
휴양
취향
갈치
산후
테라스
캐리
포스터를
안내문을
선글라스
제주도
모둠
##또
##ᅥᆸ네요
제도가
굽
이용하여
받으시면
무르
필요할까요
해당됩니다
빌
##권은
##방문
관련하여
패턴
대상자는
휴식
버스를
발급받으려고
포인트가
아무거나
##밥은
신상품으로
비싼데
누르시면
아홉시부터
무릎
깨
##이야
##인은
##하시다가
신경
신청할게요
##소가
작성하셔서
위치합니다
드시면
##액이
나갔다
연락이
잃어버려서
요금은
심해져
스타벅
남자친구
11월
열한시
고등학생
헷갈리네요
명함
3분
효
##촬영
##56
##스에서
사탕
차돌
민원이
유선
##계시면
##티지
로봇도
둘러보시다가
복지가
전시관은
들어오셔서
하라
얇은
웨어
메뉴로는
500원입니다
멀티
랜
와이파이
테이크아웃
규정상
팩스로
르
##지지
대학생
제품들
그에
서류입니다
찾던
분실했는데
명입니다
열람
니트를
대기실까지
빈티지
환자분의
증빙서류를
##줘야
나머지는
학교에
고등어
##냉면
웨이팅
xs
##누
##퓨
시에는
질병
섞
전제품
##료를
티가
##명의
분께
찾아오
화상
나오고
나오지
간식
표지
하러
식당에서
아우터류
코트는
간단하게
밑단
맞춰서
단말기에
차액
견
철
##응
##품이
매진
맞습니까
낼
내도
진행하겠습니다
분뇨
참여하면
사진촬영
맡긴
누락
폐쇄
문제로
탄산음료
아프고
하늘색
##19
가라는데
약의
없으시면
고객님은
이용은
해당합니다
걸쳐
먹어보
달라고
종류와
나갈
##커피
팔로우
맛있는
올라가는
쉽게
영상관
21일
바뀌어
어두운
##ᆫ란
수업
올이
곤란
입으실
매출
이벤트의
황
우울
얼른
코코
양념
기다려주시길
나와서
브랜
찍어서
컬러를
촬영은
평균
먹어도
없어도
지나면
늦어
날짜로
수량을
막혀
진료확인서를
골프웨어
사랑니
만약에
고무줄
찬
잇
주셨는데
##돈
##트워
말차
네트워
한꺼
신청했는데
같아
맞아서
서류와
준비되면
##두겠습니다
적용하여
사람은
##ᆯ립
##초코
계좌이체로
가슴
두꺼운
한꺼번에
5일
해드리는
봄
도와주셔서
##으며
신청하시는
참여는
나왔네요
라벨
센터가
##셨다면
저번주
특히
연락을
성인용
세트가
후드집업
항목에
접속
했습니다
상하
상영
##올
들어서요
000원으로
번호표도
드십시오
##음을
최종
열시
신고하러
##판에
간편
스타일의
해산물
간호사
유모차
랜덤
##칭
안되는
##드리며
신호
##증명
이용하셔도
##저나
##소에서
오늘의
방문한
볼수록
처방해
결정하겠습니다
표시된
소재로
물어봐야
그나저나
##ᆻ지
기획
전ᄌ
부작
고객님들이
물건이
##공자
통화
나오는데
받아주세요
인식되지
##법인
15일
가져가고
딱히
##쳐서
##하셨다면
장소가
##쯤에
밀크
시끄러
##어야
아는
##려는
고흐
##에서만
모여
모자는
적합
대기를
소고기
나네요
됐는데
아니죠
수납하는
편리
들어가고
전시회에서
##ᆯ릿
옆쪽에
원하시는지
나오죠
본적
페이코
##셨다니
휴지
임시
커피는
워크
사업자등록
보려고요
거라면
시켜야
관내에서
오버핏
##프레
##가지고
서면
##완
가능하지만
신원
##구를
세무
내리
잠겨
작성을
000원짜리
어려워서
##석이
따라가
##조건
기간입니다
##으려는데
붙은
어제부터
물어보고
장소로
정기검진
정리해
활동
봉사
원무과에서
쌀국수
권해드립니다
##가를
숫
##품을
##소매
옷과
통증
유해
교부
받았는데요
카페라테
선물하고
따라오시기
##셨나요
찍으면
강의
진단서는
##끼리
생기시면
치워드리겠습니다
전문점은
곱창
상하의
터
핏
대면
원칙
계십니다
소방
뭐야
코에
알려주는
알려주면
입어보면
판매량이
집업
손목
짧
이비인후과
at
정해진
##ᅳ류
하거든요
도장을
예약되어
##비가
들을
수선해서
주문하시면
##겹
자수
아니고
병원을
잃어버리
놓겠습니다
생각해
여섯시까지
부서가
만들고
요청사항이
상황을
베이컨
트렌치
얘기해
실업급여
공휴일
atm
꿀
예약시간
##대를
수선되나요
영수증에
들어가야
날로
진료실까지
음료수
지하로
말고도
변동
여성의류
불편해서
##포인트
가져갈
상태가
만들기
골드
출입국
무상으로
규격
입어봐야겠네요
얼음컵
밀려
하시려면
다녀와도
4일
##탄
피클
기부
다둥이
할인돼요
이벤트나
내원
접수증을
미납
남는
수납하고
무료라고
근육
옆쪽
##미술
겪
##셨네요
복지나
뜨거운
작가의
운영을
머리가
신고서는
제휴사
규모
차례가
넉넉하게
건축물
텐데
바구니에
화려한
조용한
겉옷
땅
##탈
##ᆻ잖아요
가보
수박
서식
##제는
##실까지
이벤트인지
접수하고
사람인데요
가능하니
디지
혼자서
방법에
무인발급
##ᆻ으니까
돈이
친절하게
떨어져서
어플에서
안내문이
받으십시오
입점해
부드러운
세부내역서
쑥
케
##닉
아는데
맞네요
나는데
다른데
들어갈게요
참여할게요
신분증은
결과를
주민번호
체크무늬
##그컵
출력을
입어봤는데
핸드폰으로
가져갈게요
않았나요
머그컵
##슈페너
눌러주시면
컴퓨
65세
쓰레기
컴퓨터
bts
##ᆨ시
##쌈
있더라고요
짐을
요청이
##려요
도와주는
한가
관해
메뉴인
있으십니다
관람이
보내주시면
##하기로
아우터를
막국수
##퍼가
슬랙스
자율점검표
브로슈
s사이즈로
##렁
##끄
요청하겠습니다
##ᅡ온
했거든요
마법
재진
것들이
무조건
로고
다를
금연
판매되고
외투
횟
쪽이
갈비
품절이라
블라우스를
어려운데
연결해
##놓고
역시
##튀김
##드레스
##스와
전입
결제와
판단
편집
노트
유자
행사하는
포함해서
부대시설
충분히
##스럽네요
복숭
선물포장
4층으로
##칼
어르신
##제로
기저
상설
매치
제품이라
대기표
진행한다고
포크
증거
음악
무료입
열고
가지만
바지도
##카드가
좋아하는데
코트가
가져온
남성복
표시해
푸른
찢어졌는데
묻어
사망자
##암
겁니까
고려
마취
사서
없사오니
이벤트에요
냅
작성하려고
메타
불법
다음에도
분실한
실로
아이와
##조리
나가는
디스크
##임을
진료비는
후드티가
계단이
상황에
매운탕
##으십니까
팸플릿은
벗고
할아버지
신호등
기저귀
##클로
수월
##와의
접수하는
많지
문으로
신청서입니다
일자
식전
둘러보실
포인트를
팔찌
바람막이는
신속히
열린
주택임대
아이보리색
플래시
빈자리가
쓴
##혈
##인슈페너
주어
##가루
##ᅡ레
저쪽으로
아세요
오게
보셔도
대장
##치즈
이용할게요
관심
잘라
영수증으로
사용하는
수납해야
계산하실
처음이라서
##심으로
우측에서
결정해야
없어졌어요
뽑아주세요
올리오
래시가드
##되셨
아빠
아인슈페너
고마
구석에
물도
다문화
세금
진행하도록
발급도
경로
문자가
작성은
일자를
화폐
사용을
문의하셨습니다
명부
노래
뽑기
곁
##했거든요
이해하기
순서를
삼겹
채워
귀가
여섯시
스테이
전체적으로
정수기는
##복지센터
말씀이십니까
기프티콘
밀크티
7월
8번
남색
##ᆻ을까요
가주세요
안정
설립
기업
대략
##정의
##되어서
감사드립니다
해주셔도
화덕
나왔는데
신분증으로
재킷도
호출하겠습니다
먹었어요
없으나
아동복
주말에는
프런트로
라테가
해주시고요
가운데
냉면
마쳤는데
알리오
냅킨
2차
뉴
##ᆻ고요
##서와
##데이
##짐
##원을
고용
##제가
##전은
북
세미
관해서
필요하시
입장해도
먹었는데
방문하여
버거
찾아드리겠습니다
쪽에서
데가
sns에서
사실인가요
다행입니다
멀리
코스요
사려는데
분위기
스마트폰
꿈ᄂ
##둔
##드래
##트랑
##콩
수급
신혼
고소
할지
할인이라고
작아서
대기하십시오
해당사항
옷만
소정의
배송으로
로봇이다
추가할
알려주셔서
10일
기다려도
##운데
열려
받아도
집중
김수
립스
소요되
중이던데
되어있는
품절되었습니다
기계로
수영복을
접수처에
상관없는
외부에
헷갈려
##ᆯ라로
용도로
텐동
전자우
##드래곤
립스틱
2개월
##사용
##령하
##해주세요
지켜
수령하
##제공
드리지
중이라서
구매하기
말씀드리
##분들의
와주십시오
싶으시면
진행하나요
##솔
시간으로
우동
참여하는
찾아주십시오
업종
다양하네요
이쪽이
부스로
웰
1234
유니클로
##되었으니
처방받은
협의
시간대를
끼쳐
플리스
무지개
수고하세요
코코아
꿈나래
전자우편
200원
7번
켜
##ᆼ단
있거든요
얻
오지
도록
확인됐습니다
알맞
개로
나고
아니라서
사용해도
추가적인
연기
들어가셔서
횡단
당황
날을
예정이
예정인데
키워
순으로
수선실을
날짜가
m사이즈가
소지하고
절차가
태그해
130
열리는
예술인
란에
플레이
잇모
노트북
메타버
삼겹살
횡단보
쌈
##33
가득
보도록
약속이
##과가
이용하시기
발급하려고
영양
주차했는데요
연세
수납창구
실밥이
불가능하십니다
되어있
층마다
검은색과
막걸리
거라서요
무엇을
##이시라면
넉넉한
지하철역
cc
##라요
##빼
##스트를
지드래곤
예약하겠습니다
없애
와봐서
티는
찾아와
1층의
##업무
가격표
만석
궁금합니다
취급하는
유효기간이
퀴
이달
##ᅮᆫ천
##나다
결제되나요
로즈
##소와
등록하려고
추가하면
입어보니까
공제
유형
반지
치과
뒤편에
디스
주차장을
기준에
비싸요
발권을
즐길
##정보를
드레스를
쓰여있는데
오류가
가볍게
횟수
고맙습니다
m사이즈로
거기에
##실입니다
드리기
구매하려면
것들
영아
뽑으셔야
가지러
##길래
##법에
##했다고
체크하시면
다양합니다
영업합니다
근처에서
애플
검은색은
계좌번호
많아서요
상관없습니다
김치찌개
호피무늬
멀티숍
##하긴
예약된
말이에요
매도
위생
개와
개설
않을
작성한
계정을
선불
스물
스피
성별
뽑은
제출용
치아
달러
참고하십시오
착용한
컬러도
변경해
급해서
구역은
뜻하는
나눔
교통비
작년에
이메일
산부인과
감량기
1주일
##ᆻ던데
##ᆻ더라고요
##평
##cm
##떼
##승
##기한
다인
할인으로
어디일까요
상품이라서
건은
경험
두시에
##관으로
서비스에
명이요
직원의
단정
단속
식기
##너지
계산할
##했었는데
3층은
앉아계시면
잃어버렸는데요
급한
30분부터
카디건을
s사이즈는
사회복지
24시간
카카오톡으로
펜이
충전재
제도는
필라프
스피커
드라이
##크랑
지상
안과
걷
말소
사무소
내시경
필요해서
많을
두통이
추천합니다
##뉴얼
바까
##피아
방문을
반반
에너지
30m
##위가
해야겠네요
과태
맡아
이동하면
지역에
홈웨어
좋아하는
챙겨오
웰론
제한됩니다
항목은
낮은
무거워서
##십니까
거니까
제게
구워
##님의
모자가
계셔서
##아용
등록기준
보여주시기
양치
명이에요
방문했는데
유아용
2층은
완료된
야생
팔린
##께서는
##하려는
구입하고
항목입니다
현금영수증도
필요한데요
피해를
알림을
운전면허
봉골
6개월까지
정신이
예쁜데
힘들어요
맞은편
자가격
주방에
워크숍
봉골레
낙
정면에
시민
안되
##원이
기분이
없지만
매우
발열
개랑
##명은
위치에
다른가요
2층입니다
사진이
친환경
나가면
##즈니
지역으로
##커리
홈페이지에
농지
##그래피
코로나19
이쁘네요
망가
부가세
자가격리
a코
##12
##봇
있구나
주시거나
피자는
대부분
세벌
바라며
원하실
비영
##하게도
금유
공ᄍ
##계층
반바
근무
나와있습니다
처리하고
조회가
대상입니다
가져왔어요
궁금하네요
심한데
레스토랑에
먹을게요
##하셨을
청바지는
출구로
날짜는
구두를
팬츠
진료받으시면
엑스레이를
주웠는데
느낌의
바깥
비영리
금융
9시
짝
##보려고
있겠습니다
수단을
도시
안내에
없다는
적나요
##들한테
들어가요
노무
유통
참여를
참여됩니다
제출하려고
지원금도
달린
인식할
키우
써주시면
엘리베이터로
가방은
확인서는
잠옷은
프로그래
시켜도
어플을
혼인신고
연고를
사이트에서
깜짝이야
로봇이라니
특징을
춘천
##낙
##인식
시설이
술
수를
##문을
여기다
중년
결제하려는데
할인한다고
발급되는
자판
먹기
노약
직원분이
식사를
둘러보세요
보내고
각종
있을까
담당자에게
바꿀
앱에
필요하며
샷
커플로
구체적인
소진되었습니다
##플레이
배송비까지
우비를
복잡해서
##꽃
룩
##ᅳᆫ데
##지네요
인화
##부부
맞으러
이용권
대기할
서류로
사용할게요
##바이
아이들이
카운터는
둘이
달지
과정을
이동이
##ᆸ게도
끝나면
맡겨주시면
디자인으로
장소를
신청하려고요
빠네
등산용
양육수당
초등학교
떨어뜨린
라운
##띠
고정
받기
주문했는데
개입니다
사이즈입니다
돼서요
추가할게요
보여드릴
명세서
뒤쪽
예정이니
버리
커피가
선택하실
심리
m사이즈는
절차를
알림이
담아주세요
##봐야겠네요
홀에서
사야겠네요
추가요금이
공깃
편집숍
복숭아
톡
##tv
시나
조정
구운
##정산
감염
결제한
재관람
발레
무선
신청서의
비타
나면
##단이
민원실로
##넥
##개로
받았던
가능하오니
여권발급
세트는
적혀있습니다
놓여
않아도
없어져
전화번호는
기본적으로
아니라면
인감도
짧은
느낌이
cctv
틀
##ᆷ새
##ᆻ사오니
##kg
이너
##시겠어요
주부터
가위
되시면
제철
하게
하니까
##하시어
보증
피가
##나는
확인하였습니다
##빈
결제금액
몰려
그럴
추정
비상
추천으로
못했어요
생크림
호전
담당하는
##됐나요
탑스
될지
면세
항상
지참하신
아메리카노로
포스터에
들어와서
들어왔는데
글씨
빠진
이벤트라
부대찌개
존재하지
바닐라
영양제
시나몬
탑승
##슬
이곳이
##려금
서라
인공
다이어
##호박
차에
작성했는데
##화를
준비할
걸어서
좋으면
##함이
명은
명칭
시작하는
설마
단호박
보이지
모르겠습니다
과실로
나아
수영복은
운영하지
할인행사를
깔창
숙박
전신거울
##콤한
중개사무소
산후조리
서랍
3단계
##혜
##브ᄅ
##이다
잊
이어서
##하기가
##장국
##원에게
기회
말까지
##염이
발라
적을
사이즈랑
약국도
참치
사용하여
민원처리
적용되
외의
어려워
드세요
2층에도
최선을
인식하기
입구를
적어주십시오
니트도
올라간
수령해
신상품이
초콜릿
빨대는
레이스
스푼
vr
든
시기에
저고리
보십시오
##걸
고급
와보
위반
제품들도
관할
소포
선결제
알려주시길
##바구니
병역
유명하
반찬
담백
아이들
정도가
할인이나
사업장
보관할
불편한데
알려줘
아우터는
기입해야
끝났습니다
먹을만한
물품을
아래층으로
시키면
해물파
응급실
직진하시면
민트색
씩
악
이행
지속
고른
안내받을
결제해야
구매해서
발치
##대장
주문해야
배송지를
##받으면
화물
문의의
여기서도
키가
발급받아야
가져왔는데요
앉아주세요
올라가셔서
주행해
상관없어요
형광
좌석은
도서관
하셔서요
못했사오니
2일
34
32
pc
가로
있기
상호
대충
샀던
입체
##빛
할인권을
재방문
위험
이용하십시오
부탁할게요
관공
명단에
방문했습니다
외과
제공합니다
30개
찾아보고
리뉴얼
매장엔
방법으로
잔으로
진료비를
먹어야
계단은
계단으로
앱에서
디자인의
이내로
증명사진
와야겠다
케이크는
편안히
열한시부터
좌석이
제외하고는
놀랐어요
바람막이를
볼펜을
재밌는
보관함에
앤디
무엇인가요
쳐
##ᆸ스터
##떡
##보관
요거
요새
##도로
##장찌개
아들
예산
예약하려고요
상품들도
내내
##저분
묶
두시까지
않겠죠
##식으로
바ᄈ
문의하면
공용으로
가격을
현금과
실시간
보관해
보관용
리조
자세하게
넣을
##형을
키오스
여부에
##허가
셔츠는
바꾸
물품보관
다녀오시면
맨투맨은
잘나가
합쳐서
사이에
행정복지센터
업로드해
캠핑장
있으신가요
뜯어
컨디
무인발급기
##팩
정정
지저분
해볼게요
사과
구매하셔야
말씀드리면
재활
알아요
피팅룸도
분은
주차비
배송지
##있어
병원으로
병원과
##텔
인식에
사진은
리폼
들어오십시오
아닌가
워홀
올라가면
어제부로
끝나고
신상품은
넘어
남아있지
서명해
발견된
카메ᄅ
어려우십니다
택배비가
사라졌어요
채널을
폭립
깜빡하고
상처가
내리시면
입체주의
데이터
갔다가
##가지
조치
약도
물은
결제되셨습니다
할인되죠
같고
매장도
이용하시는
내시면
것만
죄송하게도
멜
찾기가
앞까지
알려주십시오
##버레이션
참여하려고
어려워요
사람을
목살
원피스도
인식을
알아보고
택배를
사업이
사업은
데는
수령하실
치료비
잔여
##기엔
가져가시면
설치된
신발이
인원은
접수처로
파우치
여행을
중앙에
4인석
공동명의
페퍼
오랜만에
kt
카라
##07
##케
##ᆺ가락
##2년
##확인서
수정
되도록
##되신
입혀
인계
고객분들
없습니까
부를
##으셔도
##터리
알람
내에서는
방지
찾기
000원은
##래버레이션
사용하면
장학
뽑을
옆으로
담긴
관람권
달려
달달
카페입니다
벌레
상담은
나가서
오후에
비용을
표는
##사항을
용품
가져왔습니다
출력합니다
지급되는
아우터류는
공간은
전문매장
지나서
삼성카드
양식이
단추를
출생신고서
재입장
벽에
신한카드
주의해
칼로
페퍼민
##시지
##주고
하다가
도시면
동시에
고객을
##자도
상품인가요
##재키
어떨
나무
배송할
때마다
못하는
새겨
참여하시면
목적으로
된다는
컬래버레이션
알려드릴
손님들이
아이스로
테마
속이
별로네요
날짜에
레깅스를
똑같이
스카프는
누르면
경품을
##비용은
처음이라서요
클리닉
엄마가
개월까지
열쇠를
태블릿에
곁들
5개월
8시
카레
##눈
##자용
##클ᄅ
정류
시킨
다소
구매했던
이용하신
필러
일본
못해
남편
수납하려고
지원금으로
음식점
된다던데
주차장에서
커피를
검은색으로
나이프
이것만
휴대폰이
다녀오십시오
이어폰
이벤트라는
자료를
포상금
주차요
디지털
다이어트
100원입니다
##밤
##라야
지도를
시일
##길이
수출
##주민
서명을
도토
구급
확인되어
다다음
어딨죠
##터가
번호판
추천할
영수증만
##외과
나오네요
종류별로
20일
가능합니까
기간을
적립을
데리고
놓은
멋
키오스크가
재발급은
##하셨으면
포토부
소견서를
상품들입니다
챙겨왔어요
신기해라
멜빵
3주
##셋
예약돼요
할인과
한문
##재난
후유
자리부터
이용권을
발급할
옷들도
서류의
위치와
준비물
콜
코드를
명을
사람도
얼마까지
주소지를
로봇인가
나가야
국세
곳이나
변경은
층에는
가져가서
심장
떨어지면
양식에
어플로
수유실
기초생활수급자
얼룩이
인증샷
3d
밤에
울
##ᅳ면
어디인지
##상으로
##ᆸ시요
들러
접수대에서
작성하시고
신청서에서
##동의
##피가
민원의
수납내역
##처를
들어가지
드셔도
##팀
만남
김시
찾아도
이동해야
출력은
##센터에서
계좌를
길어서요
단체복
##교육
프릴
나이가
홍보
명의의
강아지가
쇼핑몰에서
선호하시는
분들께
넥타이는
압출
바닥에
예뻐서
우울증
무료입장
3년
쌍
헬
##ᆺ살
##가가
오더
동거
물이
고객님들의
싶어
접수하신
발급에
그다음
방과
준비되는
##복죽
##입구에
공란
방문해야
유의
곳입니다
환급
실적
에서
아이의
봐주시겠어요
파일을
신고하는
가능하나요
색상과
사업을
국제
뜻을
변경이
1인용
방문했어요
드려서
즐기
칸은
잠옷도
##슈즈
사전에
양식은
제한되어
110
소재의
보건소에
운동복을
갖다주세요
일곱시에
한시적
가슴살
적합한
흔
정밀
##주나요
##원의
깊
확인되나요
결제된
할인되
모아
##자체
##부에서
제품이랑
##번입니다
개선
##화상
미ᄅ
약국이나
자화상
##이라서요
관련해
판매하지
장바구니
##본을
랍스터
##위생
따라다니
찾아주세요
소요되는
중이에요
적혀있던데
산책
내일까지
발생하지
할인된다던데
키오스크는
생겨서
출생신고를
이하의
압류
중요한
잠깐만요
수신료
mr
류
##그를
##가의
시가
##상담
재발
내로
것까지
경우가
입장하는
수납이
있으시다면
방문하실
전달드릴
관람하려고
##덮밥
예정되어
복지는
불편한
알려나
순차
가져가면
레스토랑의
블라우스가
문제없
청바지를
순서에
12월
여자화장
상세한
점심시간이라
파우더
주머니가
존재합니다
채널에서
대박이다
##5678
필요하시다면
mri
끌
클ᄅ
##ᆸ고
있잖아요
지자체
##덴
젓가락
마늘
말인가요
##구는
감소
##으십니다
어디가
상품명을
제품들을
##무게
개수를
세일된
위치만
생과
저기로
언제인가요
전화가
둘러보시길
된다는데
디피
애매
지난달
운영되고
##레노
좋아할
연락처는
관계없이
등산복
블루베리
발송해
금지되어
플랫
어머니가
무늬가
타이레노
몸무게
따뜻하게
이외에
공깃밥은
3인
나리
붐
##범
##이란
##었으면
##은행
아버지
예진
해보
보다가
##여행
고객님들에게
##차가
수선과
대기하여
##우고
##식이
쿠폰으로
달라요
진료실을
집까지
찾아보
리소
영업하시나요
예매를
전부인가요
카디건이
샐러드를
앞쪽에서
시술을
주말에
크림색
야외에
선생님이
편안하게
문화의
샤워
안내문에
고장으로
오류로
피카소와
2022년
키오스크로
xxl
##둘
이틀
##스토
##드리지
대박
드릴까요
구매금액
이벤트존
##찮
##대의
수선하면
들었거든요
발급기는
서류들을
##식당
문의가
호텔
노력
의류에
나오게
건물을
모르면
특가
벌씩
리셉
순한
교환은
팔이
수령은
잡을
캡
주행모
반가워요
키오스크에
부서는
책을
다르지만
물어봐도
소매가
의미합니다
매대는
닫아
넥타이
dp된
클리닝
타임이
크림이
명확히
모습을
푸드코
캐릭
쾌
켤
##라리
정해
지인이
이벤트예요
내에는
무거운
필요는
많고
주차정산
찾겠네요
덮밥
땐
때나
생선
수납기에서
편입니다
##미어
검사실로
지역주민
증명서는
포함하여
없으니까
지났는데
귀찮
수요일에
보조금을
대리인은
평일에는
기록을
음성인식
60대
결혼식에
라인은
승인
아예
중간에
해시태그
돌아가시면
식기류
켤레
c동
##벽
지류
시음
아기가
오라리
깁스
샀는데
사후
##정책
물을
네시에
대기표를
##관에
불량
스모
확인해야
등록되어
##처에서
있으세요
##하였으
나왔던
##봐요
줄인가요
빨래
로봇과
바질
##셨는지
##난방
찾아봐
취약
예매한
길이를
스카프를
홀수
색깔이
풀려
배송비가
포토존이
협소
이루어집니다
파스타로
분명히
순번이
당사자
신혼부부
메타버스
달달한
5층으로
##사랑
##듀
##ᆸ겠습니다
##쿠
##큰
##컴
##팡
주인
##고를
저건
예시가
인절
않겠습니다
비건
지원을
##필로
하나입니다
현금이
쇼핑되
뒤로
청재키
버섯
있지는
보내려고
뜨거
산정
티셔츠는
텍
맡겨진
저쪽에서
처방전이
잘나가요
청구할
그려져
회원가입을
시행하고
커플룩으로
비타민
리소토
인절미
##둬
##익
##하다는
##하라는
해볼
확인도
발달
카테
전시가
잠봉
않도록
낚
입장료
그러나
우대
장을
실크
이럴
설명은
중이신
개인전
지급되나요
좋아하시는
인원수
프리사이즈로
답변해
샐러드가
책자를
넘어가
보건소에서
주민센터에서
장갑을
부대시설이
주차증은
이야기해
고지서
녹차
##혜택
##마로
##뢰
##이십니다
예비
##아트
말아
##여권
한다는데
##하고자
##분께
적고
접수하려면
진행이
솔
소년
추천도
##동물은
##받아서
아니네요
입어보다가
연도
전시회가
병원의
##핑크
환절
나와있
봤어요
받을게요
라스트
취등록
곳이에요
100사이즈
해주시기
예매했는데
넣어드리겠습니다
사려고요
복도를
표시가
남아있어서
용어에
멀어서
다닐
콘셉
축하
맞추려고
스타벅스
카테고리
흘
##큐
##풀
주황
##장면
오기
진청
붓
이용해야
로스
##소를
비해
배송처리
장씩
이상이
괜찮으시면
키트
시즌이
예매하려고
회원카드
인증하면
확장
하려고요
긴데
잘못된
정신과
끈이
통로를
저번주에
논
크로
틴
##ᆺ말
##핀
이를
어우
아님
오토
가능하게
구직
진입
확인하는
##상위
##렇게
진행했는데
##소독
비프
사용해서
유급
시작될
달라서
주소가
음료도
##판을
##판매
주민등록번호를
강남
식당에
##순위
내일은
인터파
구경해도
월급
가게가
스트레스
항목을
선생님께서
연결됩니다
학생증
투입구에
나눠서
세상이
떡볶이는
반대편
가벼운
접수창구에서
연예인이
낚시
53
덥네요
슬리
##크리
##입니까
주까지만
안돼
되세요
##장에서
열이
진심으로
##오리
인분
매월
한참
상품들을
맞고
들면
수선비는
접수되면
차상위
저희에게
긁
미취
소리가
더러
해주시는
등록해야
사용자
통역
방문하고
노동
윤
유산
##계절
뽑아요
체류
전달드리도록
색도
정도의
##들이랑
발급받으러
넣으면
들어오면
이쪽은
토대로
검색하겠습니다
각인
기계를
가게에서
30분입니다
가을에
마련된
탐색을
늦은
3개월까지
대여해
스테이크와
할인쿠폰이
말해주세요
응대를
시스템이
연고는
인정됩니다
게이샤
진통제
자몽에
혈액
인지하지
주황색
오토바이
미취학
##브레
##ᆯ호
이장님
##스름
##어는
##기면
수험
도시가
전복죽
다해
세시로
무단
문서
등은
오늘까지
수납할게요
##버려
방문하라고
치마를
달리
저번에는
색상만
##멜로
괄호
맛있어요
포인트는
데로
들어오는
##임자
계좌는
좋아해서요
늦을
일시적
아쉽게도
시켰는데
링크를
##ᅡ르보
헷갈리는데
형태로
군포
고객님들께서
제3전시
떨어뜨려
기쁘네요
마시멜로
도시가스
4인분
##이니까
되며
거스름
##리를
마친
사도
##침이
##되었다고
피팅룸입니다
내는
접수하려고
세일이라고
입장하셔서
##미팅
이상을
만두
##드려도
신고할
택을
없는지
된장찌개
설명드리겠습니다
가족이
브랜드에서
창구에서만
진료비만
길에
기입하면
제외됩니다
식사할
출생증명서
간단히
눈에
좌석으로
##볶음
팬미팅
정가에서
남아있는지
여쭤볼게요
아홉시까지
250
제도입니다
옥상으로
##냐고요
동생이
보험사마다
추워져서
전단지
찾아오셨습니다
세미나
파우더룸
거스름돈
뿌
##아래
##자란
##딱
##닭
주셨던
##수선
##되나
신축
인테리
고객이
##분홍색
##번인데
접수하러
##들로
주문량이
##하시면서
사이즈에
뭐지
오늘이
분실물의
기다려주셔서
필요한지
관람되
나올까요
줄일
전시관을
친구한테
세트에
##커스
강연
식당이
기능은
답은
가게는
길이는
끝났는데
여섯시에
딱딱
골목
##크림을
조리해
사본을
기존에
여쭤볼
구조가
찜닭
트레이닝복을
크리스
유니폼으로
쏟아
예정이오니
타이레놀
33
400
쇠
##츠랑
##ᆻ지만
했어
신문
##거주
전국
결제부터
모드로
매장인가요
##부암
들리
냄새
수선비
진료에
발급한
발급기에서
널
서류들이
찾겠는데
소품
사이즈까지
앞선
보여주시고
판매가
무료예요
한번만
단순
아이는
점퍼
초청
체크카드
기다리셔야
작품으로
도움드리겠습니다
적립할게요
커피도
예상합니다
##휴가
부스에
페이로도
부서에서
눈을
원장님과
스타일로
레깅스는
된다고요
유료로
챙겨왔는데
니트류
갤러리
차돌박이
마법사
띄
뷔
팩스
##이주
이민
가시기
##지거나
하니
보시기
기기를
##특
고객에게
감상
중학생
##칩
맞으십니까
번호와
진료도
재고입니다
약국마다
자궁
직업
보여줄래요
뽑아와
성함이
##사이즈를
그날
##시간을
찾아주실
상담이
된다
리스트를
처방받았는데
학기
마르게
떨어ᄐ
온라인에서
내부에는
물어볼
농어
돈을
개인정보를
벽면에
롯데카드
계획서
단위로
조건에
가로등
카메라를
크리스마
센
##겁
##시다
시착
##돌이
하이
오긴
여분의
삽
감기
발목
적어요
들어있는
않지만
지원은
추가하시면
1층입니다
외에도
반은
##주시고요
실밥
단계
나오는지
정도에
팥
보이실
건물로
참고하시길
그림이
키즈
이동하겠습니다
50m
가져와도
심해서
채용
수영복도
동의서를
해외이주
가입하시면
소진으로
##뿐입니다
진료가능
건강보험증
교체해
열린다고
쾌적
8층
주간
##수첩
옵
조직
전날
상품마다
같긴
재결제
춥네요
발급하실
##회가
세일한다고
##랜드
직통
코디
##버거
통한
여기서는
##액을
화장품이
의류매장
둘러보는
김미
연락받고
파악해
##인지를
많은가요
이쪽입니다
체험할
단체관람
레스토랑에서
좋아해서
님의
신고서에
허리를
스케
링을
짜장면
월요일에
대화하니까
정책이
헤어
느껴
하의를
만나보실
변경하여
계열의
풍경
모여있는
디스플레이
과태료
장학금
1개월
1단계
38
47
6층
##훈
##나와
거고요
조개
신을
진ᄍ
##전을
와요
자리입니다
이용도
내고
접수도
작성방법
000원에서
추천받고
##공시지가
사용한
카드도
카드입니다
실거주
아이돌
의류의
보이게
초기
가능하다면
키스
보내드리고
써요
과에서
##란이
검사가
뜨면
영업을
작가전
품절된
해주시길
촬영을
1인석
가져가도
해외에서
뜻입니다
케이크와
생겼네요
프런트에
스크래
빠져
코스프레
풀이
콘서
활용해
재밌게
웨딩드레스
마일리지
인공눈
마르게리
600원
사리
##ᆼ자
가드를
가나다
##ᅡ위
오네요
##품입니다
해충
곰
핏이
마제
예약으로
예약했던
안내하도록
상당
할인에
##치는
재안내
##럭
싶으시다면
필래
수선이나
##우미
많나요
분들에게
소량
소스가
번호표에
선원
##방을
판매를
장이
유독
##계획
어려움
나왔
파격
겸
선물용으로
임차
컬러만
##사항이
가져와서
워낙
넣어드렸습니다
있을게요
아래층에
곧바로
제시하시면
샘플을
물리치료를
베이커리
발견되었습니다
슈트
개별공시지가
신한카드로
찾아가시면
레이저
인형을
올라와
자몽에이드
56
##텐
##이어서요
##ᅳ렌
갑니다
가려
가드
숨
안됩니다
여자ᄋ
해피
보답
상단
입는데
한다니
##상을
위하여
필기
수선만
뭘까요
입어보시면
출국
생길
기다려요
먹은
먹으려고
담배
봐주실
식으로
회덮밥
로봇입니다
알아볼
과세
컬러의
인기입니다
토스
블랙으로
웬
동의자
파스타는
저녁에
포토존은
식품위생
헤드
어려우니
230
고객센터에서
산모수첩
허니브레
빛의
패키지
김민수
오픈했나요
기한이
당황스럽네요
잊어버
신축성이
닥
쓰라고
##88
주류
저절
제프
보셨나요
가능할
##것
고기는
예약석
##구의
중위
매달
한도
구매하지
같기도
##이점
차이점
진행하면
티를
작성하지
더치
약국까지
좋죠
1층에는
##적을
병원비
전달드린
단어를
완료해
둘째
점이나
둘러보시기
찾아주셔서
작품들은
매장에선
다섯시
이쪽인가요
내역서를
누구나
손님분들
계좌로
길어요
메뉴판이
받으셔야
차례대로
않아서요
고객님들께
문진표
선글라
에어팟
트렌치코트
끼쳐드려
저절로
둬
##촌
##ᆸ쇼
##툼
주려고
요청에
##장애
예금
기성
기장이
네오
결제수
구매하셨던
세면
발급하신
##명과
세일에
우의
장비
병무
가능하시고
가격표를
식용
친족
##감이
##조회
전시관의
손소독
부분입니다
불편할
이동을
데서
가끔
수령이
아메리칸
신상품이라서
왼쪽부터
목도리가
박스
따드
피부가
빨간색으로
위임장은
힘들어서
의견서를
벨트
끊어야
지역화폐로
배우자
쟁반은
중단되었습니다
야생동물
헤드셋
##춰
##아온
##바라
##가에
##지갑
햄
했죠
있습니다만
고령
도입
구석
기반
사계절
할인하면
한층
##률
##괄
이벤트홀
위아래
받지
##대는
필요하죠
두툼
문서를
주차해
소문
아니겠죠
##복으로
##처는
카드나
호명하는
유예
제출하실
곳도
이상일
봤는데요
정도는
정도를
회수
종류로
##점은
##발란
그림을
키링
벌이
##하기에
체험은
블랙과
각자
30분까지
채로
반값
농작
골지
시설에
출구에서
표시하면
##놓은
이유로
의미하는
색깔은
대기인원은
방향에
국가유
의자에서
##약국이
값은
흑임자
품절이고
힘든데
##클리닝
수월합니다
뉴발란
웰컴
리조또
순차적으로
1매
섭
촉
##흡
##으라
##ᆰ은
##보호
주셨습니다
있군요
시리
젖
거로
##되기
##품으로
가능성이
진술
대관
입소
문구
작성하실
소비
등에
나이트
위치도
민소매
영수증이랑
##부터는
카드만
가격도
담요
실감
아이폰
목발
##더라
둘러봐
테이블과
둘러보신
증정합니다
##준다고
##준히
영업하고
작가와의
강순
예매는
블랙핑크
응원
계신가요
거주지를
되는데요
전화로도
알아듣는
드레스는
케이스
스커트를
할인가에
##센트가
실시하고
탈의실
슬랙
종합민원
반바지도
저소득층
꾸준히
드라이클리닝
잘나가나요
생과일
뉴발란스
7층
쪼
##드라
##해두
신어
도난
대하여
바를
한다
한의
##치킨
##부샤
와퍼
위로
싶거든요
##대면
계시
불이
바탕으로
못하나요
등록할
판매되는
1층은
기다렸다가
융자
가져다주셔서
신분을
인식시켜
당근
하고요
나갑니다
끝으로
##득이
빨리해
걸리네요
마감시간
요즘은
비싸서
답변드리겠습니다
##자리로
qr코드로
고르고
사유서
샤부샤
스크린
액세서리는
김치전
히비스
휴게실
사정으로
자택으로
유행하는
경영체
할인율을
공짜로
샤부샤부
##ᅳ이
##즐
##프렌
##ᆽ이
이력이
##겠는데요
##기입니다
##지역
거고
하며
햄버
말한
할인하나요
구매했는데요
말씀하십시오
모네
더워서
##마일
##마키
준비하면
준비되었습니다
##영업
수납기가
##처리가
1층과
방문하면
유기
운반
봐주실래요
##페인
언제예요
초본
택시
둘러보시면
버전
맛있네요
국물
적립이
되었어요
선택하여
##서류는
생각하시면
맡겼는데
존에서
급여를
넘으면
국민카드로
의미를
운동화는
골라서
튀는
콘센트
괜찮은가요
어깨가
토핑이
해준다고
네오프렌
히비스커스
3전시
브이
앙
헤이
##언
가오리
요가
##리에
주십시요
##한지
예약될까요
기둥
한자
##되었을
미키
찾으면
##식품
000원씩
##크니
입어보는
##있어서
공중
##경부암
복사
착각
사진과
둘러보셔도
특선
처방을
영업하나요
상품권이
여부가
귀국
##ᆻ으므로
출시되어
구입할
인감등록
민원실입니다
재산조회
매표소에서
와이파이가
반입이
앞접시도
지하주차장에
두통약
브랜드를
끌고
필래프
유기농
쿤
턱
##ᅳ지
##퇴
##테스
##ms
수입
##행복
보톡
고기를
도너
인장
##비드
없네
할인권
어디까지
어딨나요
좀요
물건은
##부담
맞나
작을
카톡
##우니
##우면
전시된
않으시는
옷인데
000원만
##동이
지원되는
시간제
다음번에
출근
공짜
먹어서
색으로
쿠폰의
원피스의
담당의
모르니까
계산하면
본원
적어주시기
집이
불러주시기
포장을
표준
들어오신
나온다고
증명서가
출력이
블랙은
수술이
발권기에서
수수료를
종이를
빵을
사유를
금요일에
등본을
팬케이크
다니는
콘센트가
닭고기
구비서류를
할인행사는
부착되어
누락된
부작용이
무지개색
키워드로
편집숍입니다
미뤄
노력하겠습니다
리셉션
슬리퍼
자궁경부암
8층에
깐
##밍
##그라
##수급
가리
숲
하자가
오염
해놔
보려는데
구토
안내판이
재해
##하진
##화되어
미트
추천이
배송받을
판매는
먹다가
중인데요
반짝
직원은
색을
관람하신
김진
발급받으시고
손이
뭔가
교환권
잃어버렸는지
정장은
높네요
상이할
전시회장에
모자도
##껏
꽃등
놔주세요
생계급여
줄여야
하려는데
목티는
어울릴만한
뜻이죠
옥상에
소주도
민원접수를
지방세
적당한
귀여운
소음으로
비밀번호는
오므라이스
##1234
프로그램이
국가유공자
37
년
으
##수량
어색
되십니다
##되니
아티
아몬
합니까
오징
보쌈
신생
피검사
예약의
전해
대고
없다니
##으셔서
맵게
##라니
결제되죠
##송이
##분을
##물로
들려
적게
방해
미래
믹스
비지
배송하고
##받으신
폼
때도
##방울
남지
로봇이에요
민원업무
양송이
판매해요
카드사에
호크니
병원에서는
가져다주시나요
파일
남아있어요
있는지도
음료입니다
바지로
김명
복지혜택
설명이
상품이면
불편하네요
맛있습니다
영업하는
##양냉면
주차권도
왔었는데
머리는
길이만
챗
본인의
라지로
표시되어
스타일이
선생님과
화이트는
첨가
하나를
진료받으러
4층에서
해설을
값이
구경하러
##자라서
연예인
머신에
하라고
대략적인
노약자
쇠고기
콘서트
헤이즐
깐풍
미트볼
꽃등심
아티스트
6인
8인
드라
##아르
##극
##끈
가려는데
요청드립니다
시입니다
수첩
햇
##왔어요
고객의
중국
말씀드린
세워
맞겠죠
##림프
후문
이용하셔야
받으시
것과
세일되는
방수
나ᄈ
바에서
시간이라
창문
외상
##편으로
시작되면
열세
겨울옷이
불러주시겠어요
##파서
##폼을
큰데
증상에
지역난방
기준을
보험에
잔만
가져가실
진단서랑
평양냉면
발권기
그러는데요
드는데요
마감이
있다던데요
##하셨는지
##스터드
원장님이
저쪽인가요
품목이
품목에
시술실로
수요일은
출입증을
허리띠
들어왔습니다
다르다고
플라스
맛으로
자격증
증빙서류는
주사실이
국민행복
##먹을
원무과로
이쁘
액세서리를
라이브
##자여
예약자분
목소리로
클럽
병무청
아몬드
플라스틱
300원
멈
가겠습니다
시폰
되니까
하프
##약은
##오신
사케
다빈
고객님에게
몰
피팅도
매장까지
##선이
##신지
경기
잠을
##던가
많던데
않는데
영유
앞의
해주신
메뉴인가요
로봇이면
민증
먹는데
##ᆯ릴
쿠폰에
라인이
진료실과
##법을
작성해도
가능하다던데
보내는
불편해서요
검사는
파악을
증상일
거울로
체험이
기능도
발생한
캐시
이후부터
거주하는
정산이
갑작
##놓겠습니다
나눠주는
자료가
혼인관계
원두로
퇴원
의료비
읽어보
흉터
마치고
##곱새
나타나
심해져서
바뀌었네요
네트워크
관해서는
단정한
낙곱새
쿤스
헤이즐넛
다빈치
뻔
칭
테스
##먼
##튜
##쓰
보세요
도장이
대답
확인한
부르
맺
할인만
모드를
##류가
작게
진행되지
세일하나요
분을
영농
해주나
##카츠
카운터를
패스
파인
남았나요
라고
##위에
착용을
착용하실
특산
복지를
불러주시길
##사이즈는
체크인
보관소
장애아
중이네요
선택하시면
품절로
식당가는
셔츠로
걸리는
기입하시면
오전에
코트도
일정은
끝나는
확보
120
남아있어
비어있습니다
재입장이
튀어
볼펜이
160
클릭
의사선생님이
배너에
분할결제
메시지로
지연되고
꾸며
깔끔한
100원
5xl
벤
수강
거겠죠
##로리
주시죠
오려고
보는데
조절이
##원은
##거죠
입기
고객은
후토
받죠
##대학교
수선하는
##저히
발급된
발급하시고
##소육
극
나을
##내시경
##버터
##아서요
사람들은
근거
처리되는
시작해
단일
봤던
신기하게
카페를
행사하고
괜찮아
로봇인가요
김현
불러줄래요
간판이
여권입니다
불편하신
##개월까지
애가
애완
##밥을
적혀있네요
수령을
수령할
그거랑
결정하고
전시장에서
늦었습니다
내부에서
재발급이
박스를
답변을
아래층
홍소육
대해서만
부담금
잡아도
다니던
준비서류가
##사무소에서
감자튀김
히트
그곳을
리뷰를
알레르기가
놀이터
정문으로
맥주
코코아색
##ᅡ르보나라
800원
읍
자라
흥
##ᆻ다던데
##ᆻ습니까
##인증
있긴
지어
##기록
안내판
말라서
여기에는
신청인과
모금
재능
##분간
위내시경
번호도
밴드
많을까요
비즈니
소리
바다가
선반
##방위
민방위
콜라로
민원에
연분홍색
노점
외에는
##에게도
가격인가요
교차
아이패
열차
원피스로
당분간
행사입니다
어서오
초상
있었네요
##ᅡ라고
치료는
충치
필요하신지
마지막으로
출구에
줄이면
미디엄으로
탄소
금요일까지
어린이집
봐야겠어요
주사실은
아프네요
역사
응대해
무스탕은
##소득세
탈의실은
움직이네
신체검사
분위기가
반려견
파티에
쇼핑이었어요
산후조리비
요거트
페퍼민트
노점상
29
뮤
쓰라는
##섭
##ᆺ글
이류
주셨어요
주제로
지구의
##었는데요
싱
안될까요
되겠네요
##행사
할래요
##반기
##올게요
댓글
##정에
여기에도
부러
부드ᄅ
결제됩니다
어딜
말씀의
##률이
상품인데
##과입니다
##되었던
##분들을
적으라고
밴
위치까지
##진입니다
준비하셔야
선박
##피타
알려주나
성분
통하여
가격입니다
##주시겠습니까
실행
##미가
결과가
보이고
날씨
##위를
적었어요
벌과
입력하시면
변경하실
적혀있
앉아주시면
그것도
답으로
구역이
한복이
처방전만
가입을
11일
빵이
파스타가
##놓는
우편으로
운동화를
정가보다
묻지
조끼를
분들에
36개월
핫초코
염증
산부인
거리에
자르고
빌딩
케첩
신호등을
명칭을
컨디션이
꾸며져
비즈니스
##피타이ᄌ
700
띠
쓰려
튼
##마와
##벳
##닛
##고기가
지출
거여
##왕
약한
##구매
대가
여기까지
부재
다이
다자
다쳐
진료와
진료받고
주문만
분야
못했는데
##픽
화가
화분
사례
관련은
공인
카드별
곳까지
##음파
쿠폰입니다
회복
보이던데
진료실에
착용도
그릭
리본
검사실은
기간에
구비된
운영됩니다
발권은
식사가
저렴합니다
왼쪽입니다
목도리의
뺄
라테를
서명으로
소득기준
찢어져
매운맛
상의와
봐야겠네요
홀딩
짜증
디저트로
절차에
얼음을
희망하시는
현황을
게시물
문진표는
그쪽은
커버를
자연재난
1일부터
영주권
만족스러운
공란으로
하이패
차이점이
튀어나와
부드럽
##피타이저
테스트
##으라는
##브를
##8개
정리가
##하다고
##지민
수원
주십쇼
##한솔
예약하는
동시
##아입니다
셋
##치노
싶었는데
내복
받아오
접수됩니다
소금
000원까지
의뢰
##든지
공시지가
나왔다고
점자
끝인가요
보내야
이동하셔서
곳이라
자동적으로
팔리
##한데요
입고되었습니다
법원에서
샐러드로
모바일로
박스에
동의서가
찍어야
재미있
복도에
나누어
스타일과
기억나
죄송한데요
열두시
편의를
정형외과로
##놔도
어울릴지
해준다니
인증샷을
놀라워
소화기
차액은
관심이
립스틱을
담백한
군포시
튼튼
다자녀
뚜
이모
##숲
##질로
안되네요
저의
거를
하므로
오일
핑
기름
확인하기
##야키
인출
붕
매대가
##분들은
세일입니다
문명
작성하시는
메모
나지
##크에서
배송받고
##워서요
준비하겠습니다
아니다
보여주실
보여줘
판매율이
직원들이
아이고
##외로
의류로
줄입니다
음료로
김경
살이
찾았네요
부분으로
보내드릴
코너가
용무
층에서
층까지
업무에
면허
데스크가
기재해야
요금을
주행하겠습니다
전시장에
당첨되어
늦었는데
출구는
샐러드는
출입이
책임
40분
줄이는
관계없
생겼어요
500원의
이유에
달라질
색깔별로
서울숲
처방받으신
발행해
라인을
당첨됐는데
구성된
목적의
방식으로
말씀드려도
사장님이
비교적
르누
관공서
두툼한
나쁘지
1위
##보드
##하길
##하므로
있겠네요
##가와
수어
아내
보려
보일
피자랑
도넛
도저히
깁
중고
매번
고객님들을
재오
발전
작아
주문하지
##명으로
소바
소리로
##맛을
입장할게요
증명하는
못한
코가
분실신고
입어보시고
보여줘야
편이네요
판매량
문의주시길
이상인
신고하면
선물하려고
줄에
해양
김정
카드로도
기간이라
패딩도
천막
업무가
잃어버렸다고
신상이
맛있겠네요
전시장으로
무이자가
아동의
속에
답변은
디자인은
다녀온
문자메
사유는
디저트가
18세
영화를
허가를
문의사항이
재밌네
세팅해
까먹고
귀엽네요
싫은데
세일가로
꺾으시면
##클링
휴양지에서
스물다섯
곁들여
콜드
아이돌봄
르누아르
6번
sms
##마우스
##5입니다
##에선
가시길
##어난
##도는
##장의
##한다니
##여덟
없게
이벤트죠
낸
받아와
것보다
무한
대기자
전시실은
많다고
작성할게요
계층
폼을
때보다
추가를
10에서
유지
참여하나요
시작하나요
2층에는
의류와
초음파
##됐어요
겨울맞이
기다릴게요
보내드립니다
컬러별로
허용
교환을
예매하고
포함인가요
핸드폰이
10분에서
발생하는
발생됩니다
캐비
좋아져
보호를
보호자가
구입하면
처방전에
차량번호를
샐러드와
존이
생겼는데
맡기려고
민원실에
부모가
스테이크는
정리하고
첨부해야
2인분과
관내에
떡볶이가
tv에
도슨트는
바뀐
근방에
##자라고
소지품을
혼잡하여
임부복
섞인
브로슈어
잇몸
전문매장입니다
음성인식에
브이넥
미키마우스
보톡스
아이패드
재오픈
7층에
##ᆸ을
##ᆻ다면
##ᅥᆼ크
##기만
수단
거요
해보시면
맛을
상큼
대학
확인하시면
인가
##치세
받으라고
주문되었습니다
##솥
분에
입었던
##출입
입어보겠습니다
입어보신
##르몬
##업소
명단
명찰
공유
카드지갑
유공자
##겠지
##겠네
제출하셔야
##모레
환승
처리에
신기해서
건물에서
카페테리
적어주시고
간격
음식입니다
된다니
##놀이
다예요
순대
증상으로
애피타이저
내역에
수령하시면
##어보고
개인적으로
맛있다고
회원증
내일모레
돌솥
백남
끝나서
연락처로
스트레이
맡겨도
맡겨야
순서는
메뉴판은
고르는
바람이
연결되어
알려주시나요
광어
외국인이
쌓
유니세
옷걸이를
에이드는
여쭤보
이쁜
돌아다니
추후에
귀걸이도
마카롱은
에코백을
써져있는
부작용
횡단보도를
인감도장
##크림이
크리스마스
식용유
햄버거
신생아
소화기내
카페테리아
백남준
스트레이트
콩
##사리
##께요
##욕
가봐야
요일
고객에
결제되는
##부르
부탁해도
수선에
진료내역
접수한
발급비용
세일이나
신청서랑
000원인데
밭
시간당
코카
추가한
명화
적용돼요
호흡
현금을
2층과
날인
불러주시나요
간이
써서
방법도
누워
블랙도
항문
룸을
챙겨주세요
재밌다
빼빼
초코칩
열한시에
필요하거나
교육비
합산
구두는
뒷면
상의는
##놓을
밥을
신청하는지
대상자인지
환경의
헤매
롱패딩을
구비서류는
명함을
아웃렛에서
있으실까요
##공간이
확인받으려면
재발행
뜨거우니
삽입
김명수
캐비닛
유니섹스
멧
트러
헐
##ᆮ가락
가기가
가려고요
요리로
수상
숟가락
거절
거위
오시는
예전
옐로
##사도
서른
##으로요
예약인데
안내드릴
대방
없음
싶으면
받게
관에서
필요가
차트
분리
않은데
작성법
일치
났는데
포기
준비까지
##권이
입장안내
때에는
바에
지원되지
추가하여
출발
양파
통관
통로로
하나가
전달하도록
설문
이상은
도와드릴까요
당시
손을
##혀서
끝내
처방받아
변경할
없이도
구비해
체험관
호출을
가져가야
잡으신
잡으려고
룸에서
키오스크에서는
충격
크림소
제휴되어
어린아이
아파서요
라테로
긴팔
어머나
무상수선
내려가셔야
붙어있습니다
##ᅡ르트
크면
슈림프
놀랍
10월에
감자탕
창고로
b동에
재료가
파스타를
특이한
돌려드리겠습니다
맞이해서
결정해야겠네요
드라마
흥미
멧돼
대방어
98
렌
##사ᄅ
##나리
정석
가볼게요
##ᅡ름
해링
##사한
보리
조카
전통
##전거
대책
대학교
##정되어
없거든요
##류를
같으니까
건으로
맞지
##이즈
받으시고
원장
원하신
로브
배포
일상
티켓도
##된장
자전거
스패
분실했는데요
수납기로
성적
장난
분실물에
공영
홀로
하나에
제출해도
처리도
앉아야
언급
신고가
받아보
계산도
조금씩
착용하고
##셨을
연락드립니다
사항과
##포즈
걸로요
오픈하였습니다
##ᅪᆯ영하
각층
구경할
전문으로
마감되어
##예매
구입하실
프리사이즈
골덴
몰랐는데
보이는데요
여자친구
필요하다면
245
스테이크가
떼러
주사실
면제해
정가가
받으시기
응대하는
공연이
챙겨와야
해설은
당첨됐다고
국내산
습득한
팝아트
##꽂이
팝업스토
놀이방
데려다주실
77사이즈
다음번에도
성명과
벌레가
환절기
흘린
섭취
코카콜라
3시
촬영하
##브래
##갱
##그레이
##ᅳ닝
##ᆨ션
##이로
##이지만
이니
##고리가
요리가
##지나요
##주셔도
보나요
고를
고갱
마무
##에서의
전에는
대비
입술
그라
세계
위층
후견
이용료는
##대생
것처럼
진행되나요
개수
분들을
준다니
서류들
처분
준비하신
시간대가
스프라
사용하신
##체험
##함에
들어가려고
문의하시길
저기가
호명하
##에게는
조회는
열시까지
정도면
달간
받아주시면
주소만
휴일
매장에서만
##팥
된다면
끝까지
보관합니다
때문인
교환이
교환해
넣어주시기
가입하면
시키고
전체적인
맡기실
샌드위치는
에스컬레이터가
새우가
기록해
아기의
건너편에
가정에
바우처로
듣지
해결해
인스타그램에서
와이셔츠를
제로콜라
메인메뉴
프로그램은
조심해
부가가
아울렛
이메일로
민원인들을
경찰서로
차감해
뵙겠습니다
스키복
31일까지
##누리
네트워크가
랜덤으로
##끝
퀵
달러로
감염병
뷔페
2에서
l로
탁
##ᆻ다는데
##ᅥᆼ이
##시며
있겠죠
요청하시기
##주소
거래
거라고
##드리니
해봐도
고가
안내드리고
기침이
부여
구매하시고
모닝
##이자로
##대장을
무이자로
주문하시는
잠옷이
많더라고요
두었습니다
소식을
등으로
덧
배송받으실
뭐여
선예매
양입니다
종일
무료이며
통행
먹으러
호떡
##넬
##ᆯ릭
아이랑
아이유
카운터가
##불로
전시관으로
사항입니다
##태아
뜨개
친구를
다섯시까지
강된장
##서류를
왔다
구역입니다
지나간
아메리카노를
보조배
동의를
접수처가
휴대폰으로
빵은
여성복은
진료확인서는
안쪽에서
계좌이체는
이유는
치마는
쿠팡
주민등록등본을
180
국가에서
꽂아주시면
냉동
수면바
줘서
통해서만
인상주의
통로가
전단지를
아침에
휴양지
세무서
헷갈려요
말씀드리기
지난달에
후토마키
히트맨
마무리
스프라이트
린
크ᄅ
킥
##ᅡ이
##ml
##해장국
갈릭
요청하면
시각
제육
올리ᄇ
오리지
도우미
전혀
확인되십니다
부츠
##라피
구매처
신청자의
##자고
번호에
차명
##회는
잠금
##단위
시간에는
그러던데
얼큰
코르
등록에
금천
공대생
호적
뽑으시면
주실만한
전달드리니
실버
조회되었습니다
완료하였습니다
도와드리면
신고하고
##점입니다
작성했어요
바지의
상담하고
있었습니다
##멜
보내드리도록
불편함
브랜드입니다
소요되며
임금
주민등록상
시즌에
기준은
토슈즈
치료실로
##센터에
10분만
30분에서
충족
이곳으로
챙겨온
동의서에
시설을
제휴된
약국에서도
119
에스컬레이터는
글자
뒷면에
월요일부터
계약서는
대화를
운동화가
랩
눌러주세요
원무과에
아픕니다
말해주시면
가족관계증명서가
건너시면
하얀
##북을
취급하고
실시하겠습니다
형태의
사이트에
수유실이
주소지와
예약했었는데
특정한
목소리가
양수인
재판매
먹어보고
편리하게
페이코로
영유아
칭찬
애완동물은
부가가치세
뜨개질
올리브
오리지널
2x
3차
5일이
85
b급
큐
##딸
##44
##이고요
주나
시는
##ᅧᆼ업
안약을
하시고
질환
여분
해바라
신학
안내원에게
##일입니다
전량
확인만
확인하시고
##으므로
신청하시려면
건설
발표
무관
##들입니다
일괄
나서요
직전
지원합니다
남으면
##두부
입어보셔도
성공
명시
명인데요
방문하게
드디어
의류입니다
##점으로
바지허
키와
기다리겠습니다
층의
선택해서
업무입니다
기재하지
촬영해도
포함해
입고되는
돌아서
##퉁
구경하시고
자영업
것이기
확인서와
전문적으로
없으십니다
일정으로는
맡겨드리겠습니다
남성분들이
이전등록
##자리에
마지막입니다
빼주실
여덟시
교육을
에스컬레이터로
샤넬
소재가
대화하는
가정법
안전한
무인수납기가
사려면
커버가
쇼핑센터는
비워두
뼈해장국
김지수
예시를
지문등록
티켓값의
굽는
수업을
로고가
실시간으로
##하였으며
취약계층
잊어버려
##왕이면
잠금장
1부
2분
메이크
블
엉
##벤
##느라
주기가
안되면
거쳐
아쿠
여전
##하시거나
##사경
보존
피자가
도매
예약되었습니다
기사
말인지
중소
구매했
구매하셔도
구매율이
건이
필요하십니다
차서
저희도
발급하는
재고만
신청서라고
가능한데
오늘만
못해서
등록의
입어보게
수납하지
수납하면
##카도
##하였사오니
듯
복통이
설사를
건물과
##점을
##통에
손으로
손자
브랜드와
이동해서
넣는
데에는
애견
되어있습니다
인기상품
오픈했습니다
다섯시에
강좌
촬영해
치료받고
폐지
인터넷에
법률
없어졌네요
농식품
아래로
출구가
돈은
입장권은
자격이
그때로
떼려고
계좌이체도
한해서만
운전면허증도
15분입니다
이하인
관내에서는
직원분께서
공연은
일요일은
얘기하면
포토존으로
원두를
토요일에
##스테이크
밝기를
페이백이
롱패딩만
220
적당히
작동하는
여드름이
버려드리겠습니다
야채와
몸살
무료배송입니다
77까지
105사이즈
업체가
무릎이
잃어버리신
지하철역으로
없애고
추정됩니다
무거운데
옵션
국민행복카드
##브랜드
여전히
7세
크린
##3번
##하거든요
##시거나
주셨네요
가죠
시카
어금
##리닝
##장려금
보셔야
보강
사건
##여도
부만
한쪽
어디쯤에
신청해도
번거
##번으로
들지
들으실
티슈
경위
미숙
주차시간
등받
준비물은
##이라던데
##세에서
다음에는
##버지가
명이나
호명을
호르몬
유튜
행사로
언니가
도와드린
##토피아
종류도
참고하도록
카페인이
테이블에서
예정인
써보고
엘리베이터까지
진단키
##심을
증명서에
강지민
지급되며
포함되지
구경할게요
종료되어
설치해
블라우스랑
귀농
삼성카드로
보면서
앱으로도
시술은
쉬고
상이한
맡기신
굿즈는
포스터는
금요일은
드레스가
상품들에
목요일은
펜은
잡아드리겠습니다
잡아주세요
주머니에
원활하지
본인이시면
체온을
회사에서
어려울까요
450
팀에서
염증이
주어집니다
알맞게
알맞은
챙겨오긴
쌓여
400원
67
슬
정면
##기와
거기로
해드리
해줘
보티
##용품
안내하여
기술
할거
##만의
대주세요
대응
입증
물과
고객번호
결제돼요
모드
세시부터
재학
건조
윗
위층으로
제품인
자리도
이용한
카드랑
##대상
원단
접수하나요
진행을
옷입니다
작성하다가
주차도
비대면
나가요
배송까지
##월이
자부담
시간대에
우렁
판정
입어보니
보여주십시오
통팥
반지를
얼마일까요
조회할
봐줄래요
점프
열여덟
쇼핑하고
받아보고
카페의
별개로
전화받고
적어주시길
손에
설명도
성인은
중이므로
잔이랑
장애인을
학업
걸리는지
올라가신
식사하고
공간입니다
기본으로
꼬막
##질환
목도리는
메뉴판에서
차량을
여덟시에
넘버
정기세
남아있을까요
친절하시
균
청구하려고
점심시간으로
200벌
밥은
카멜
대상자입니다
일곱시부터
수당은
고민되네요
1인분씩
꽂아주세요
사려는
대기번호가
주웠는데요
건강보험료
브랜드로
금연구역
노무법인
고객분들께
수험생
풀이해
중위소득
관계없습니다
잠금장치가
크린토피아
6월
ar
##ᆺ저
##77
##90
아마
하객
오나요
##행정
##한다
보기
##것도
고쳐
도보
안내받고
##료가
상자에
대주시길
바르
매실
할인받
할인권은
모던
매장인데
와주셔야
이용해서
적금
필요했는데
발급하고
주문하셨습니다
전시에
배내
배탈
개인이
##명용
않으시면
##화로
계시나요
미국
덮
티켓입니다
티켓까지
시간대로
됐습니다
아닐
문의하십시오
적용도
카드에
유상
##모닝
곳뿐입니다
##후루
##코스
##말을
실외
운행
보이더라고요
괜찮으면
착용하신
쓰던
##했으니
복지과에서
전시관이
있었는지
썼던
알려준
가방이랑
티셔츠로
용이
되어있네요
발급했어요
빠르
심각
단체석
결정할
캘리
법정
셔츠도
뽑아주시면
디자인을
형식
친절하네요
합격
사인을
##새우
크기가
바꿔주실
회원가입하면
기모가
하시는데
토요일은
활용에
고민되는데
탕후루
걸린다고
당첨돼서
꽂아주시길
우산을
고객님들에
진료예약을
트레이닝복
끈을
옮겨도
패키지로
만료된
갤럭시
사업자등록증
##되셨을
플랫폼
메이크업
배냇저
2월
덜어
텁
##텁
##있는데요
##보카도
잉크
이한솔
##스부르
##기부
되네
거거든요
아보카도
확인되지
결제했는데
구매하게
모형
##과를
매장과
적어서
진료기록
접수했는데
대기자가
##신이
발급해야
로그
옷소매
서류들과
미용
주차비용
빌릴
찾으십니다
##동안
직계
##납부
좋고요
새벽
사용도
종사
장어
기다렸는데
##계좌
제공되며
담은
설탕
단어도
아이에게
지원금이나
팻말
신고에
받아주시기
카페에는
찾아보겠습니다
##등록부
혜택에
가방에
가져왔는지
출력됩니다
체험부
좌측의
레스토랑이
늦는
뽑았어요
태풍
인원을
원장님의
멤버십에
제시하면
맡길게요
파란색으로
상세하게
결제하면서
지정된
콜라도
펜으로
교복을
누르시고
물티슈는
토요일로
스파클링
데려올게요
의상이
곱빼
메시지를
믿기
뵈르
엽서
돼지고기
파자마는
당사자가
면접용
이의신청
깔끔하게
효과가
고흐의
트렌치코
땅콩
bts가
이너웨어
냄새가
쾌적한
보답하겠습니다
빼빼로
친절하시네요
텁텁
1순위
6시
ai
id
꿰
쥐
##척
##자ᄅ
##다로
가상
갔던
가시다
요청해도
시계
시험
되셨습니다
하기
##하시려는
고기가
피자에
마스
기침
대하
세잔
##호가
상품까지
상품이나
상품이라고
재신청
와주시기
작네요
대기석에
대기줄이
차고
지금까지
##져서요
##까지입니다
준다
불만
해주네요
스킨
등록하면
생생
장염
방문이
참여해야
듭니다
##액은
이상부터
앉을까요
관람하다가
원피스나
결과지를
커요
커스터드
라떼
##배기
대상에서
간병
체크카드로
기다릴
보관된
브랜드에
뜨는
50대
##백화점
입력은
데스크를
지역의
비치웨어
궁금해서
예쁘게
운동할
태아
아메리카노와
박수
프리미어
없는데요
샐러드바
이내의
언제까지예요
하나와
깜박
있다면서요
국민카드
상품들로
유명합니다
계약서가
안전상의
휘핑
행복한
양도인
구청에
히레
컵이
계획되어
구비서류와
습득물
복잡하네요
매표소로
오곡
확실하게
예약했거든요
숙녀
지하주차장으로
놓아드리겠습니다
스파게티가
##지엄
러브
갈치구이
##칼로리
해물파전
팬미팅은
신문사
따듯한
도넛이
햇빛
이니셜
캘리그래피
##스부르크
프리미엄
1등
fw
브라
자를
프래
##런
##테이
##0원
##ᆺ집
정보제공
주네
##ᅩᆼ을
수에
해달라고
가능하고
가능하실
구ᄆ
예약번호
확인되는
없다면
중이라는
중학교
다과
맞으신
번도
와주시면
피팅룸의
들까요
##회를
서류인지
등심
##마가
준비한
지원에
선발
그러고
걸칠
등록하는
민원실은
민원창구
입어본
##업은
뽑나요
제출하여
가격과
칠
복합
최초
의류만
계산하고
내용인가요
줄로
벌까지만
발급받으면
살려고
안에도
보내드릴게요
도움드릴
아닌데요
예매가
예매도
급한데
놓을
붙여서
룸에
##곳에
10분이
발생하면
넣어주실
카디건과
수영복의
저쪽이
시설의
제한을
주말까지
항목이
장소는
110사이즈
자격에
디저트는
도착할
누르신
신속하게
준비서류는
걸어주시면
주차증도
지불하시면
흡연부
축구
쟁여
수유실은
읽어
의사선생님께
##자라는
말씀드렸는데
pcr
국세청
즐기실
호흡기
##사람
1kg
m으로
차로
##알
##ᆸ이
정거
##ᅳ럽
지퍼
##지의
어무
아나요
오피스
오라는데
서식을
보네
고추
안내하는
사살
입학
물병
매대로
##자동
세컨
추억
관광
이거로
감사드리며
배경
신청서에는
방안
더티
준비하도록
입장시간이
메뉴에요
못할
아니어
로봇이네요
연중
편하네요
##첼리
참여되는
제공되나요
가져다드릴
시작할
단어가
##믹
##년생
##ᅳ랩
사진이랑
착용하셔도
그릴
품이
##감을
3층까지
불러드리도록
손실
##안경
보내실
##노소
##애플
처방이
가방도
친구에게
지급하고
채식
인증하는
왼쪽에서
구입하려고
주말은
수량은
뺀
바람에
시까지입니다
여덟시까지
240
서명이
화요일에
남녀노소
이어집니다
일행분
응모권
물티슈도
배치된
취업을
##값이
21일에
영업시간이
탈의실이
버터크림
진료예약은
똑똑하네요
래시가드는
블로그에
사인회는
스토리
비밀번호
비빔밥
가보니까
브로슈어를
푸른색
워홀과
붐비
붓고
김미숙
농작물
촉감
파인애플
스팸
프랜차
어묵
##자동차
3월
브리
셰
카르보나라
타야
##촉
##옥
##ᆻ군요
##ᆺ으로
##3입니다
정비
저렇게
##사지
약도를
안내되어
기구
##구급
##으나
매매
매대에서
닦
한양
##치고
발부
와봐
자리나
이용하셔서
무서
진행된
발급에는
해당되
개소
개밖에
두시로
다르네요
나은
때랑
지원도
시간인가요
메뉴라고
되는구나
연극
보여줄
수납의
##르고
편으로
판매하시나요
장려금
문의해야
통장을
사람인데
사람처럼
곳의
완치
##믹스
이상으로
점포
정돈
원피스에
결과에
계산하려고
내용입니다
쓰시면
발급받는
살지
과거
여권이
컬레
기간으로
아무것도
올라가실
가을을
담당자분이
채끝
증빙이
##신고는
당첨이
한복에
아메리카노랑
고객님께서는
해외여행
주말에만
찌개
##하려는데요
빵과
##주신다고
향과
편안하네요
조리시간
입어봐야겠어요
글자가
맞춤으로
팸플릿이
하나의
다운받아
대화가
달라진
목요일에
소개로
##일로부터
25세
바뀌었습니다
걱정이네요
배출시설
사정상
여유가
단말기
뒷자리를
신메뉴가
0101234
빈칸에
밑단만
매진된
스테이크로
바깥에
없어졌나요
형광색
헬스
더치커피
갑작스러운
해바라기
바지허리
보티첼리
휘핑크림
6세
73
쏙
트리
이물
갔지
되겠습니까
##드리려고
##되오니
오는데
조치를
예약하려면
##실까요
인포
##여야
한강
신청하라고
몰리
재질이
왕
제품별
진료받을
접수되어
대기는
사이즈라
많죠
##관의
배송입니다
앞으로도
메뉴도
스테
알려주나요
생초코
보여드린
먹어요
놀
옆의
##적이
완료되
아이들에게
봐서
30벌
겹
뒤편
20주년
하면서
##했으면
복지제
처음부터
엘리베이터나
##란에는
임용
되어있던데
오픈해서
선택해야
예약해두고
강한
구경하시길
좋았어요
신상품이라
사실이
제한하고
아래에
주말에도
내려다
맛은
백화점에
의미로
끊어서
바꿔드리겠습니다
좋은데요
교복은
중이라던데
케이스를
케이크랑
##ᅳ라이데이
유료인가요
식품영업
창고에
쿠키로
예술대
그곳에
늘어나
고객센터는
숍에서
보상을
교정기가
##자료를
니트랑
진통제를
해시태그를
통보까지는
막국수는
계좌번호로
스피커가
등록기준지는
##브루
##브르
김시영
##둬도
시리즈
어서오세요
콜드브루
좋아졌다
컬렉션
늘리
뜰
흠
##ᅰ어
##기업
어차
거에요
##드리더
질이
굳
예약금
##일곱
##오라고
확인해서
인근
신청으로
##자에서
상품인
##재민
##은데요
싶다고
들으려고
적응
카드리더
수선한
원단을
발급과
재고로
주문부터
##회에서
분유
작성해요
미팅
나베
##식빵
입장해야
때만
아니오
##세를
10년
수납해도
##생을
판매용
공부
노브랜드
참여하죠
##티가
처리는
2층을
조회되는
30명
언제로
목감
목포
그러면은
담당자를
20인분
마음을
증정되는
가능하네요
살다가
불러주실
위해선
작품에
작품명을
택배는
뜨겁
적립되어
적립되는
들어오는지
변경된
출력할
품절인
면바지
예매해
검색을
결정됩니다
부스를
법원
사실이에요
맡겼던
넓고
밑창
한정되어
스타일이나
맨투맨이랑
s사이즈가
열한시로
다행이다
스틱
진료받은
사본이
직원분에게
공연장
##값은
반대쪽
탕볶
근로장려금
고객센터에
포획틀
머리핀
밤식빵
배너를
깜짝아
와이셔츠는
염려
김지영
270
야간진료
얼굴에
접수증에
밑반찬은
푸드코트
가격표에
##가지고요
고객님들에게만
여자아이
오징어
무한리
린디
얼큰한
아쿠아
어차피
1주년
43
58
곽
프ᄅ
펑크
##15
##닥
이왕이면
##하더라고요
##ᅡ예요
접시가
##주택
하반기
##려서요
보기에는
##에서부터
예약일
예약한다고
기기에서
상에
말해도
##오는
여기저
부채
결제의
신청의
이벤트여
알겠네요
맞으려고
것인가요
원인
진료받아
접수번호
찼는데
발급하시면
개장
않기
문신
영향
계란
미디
솜
소녀
티켓부
입장하려면
메뉴에서
메뉴명을
아니므로
창구입니다
사용하시는
연간
생기는
##르트
##처가
판매합니다
##바닥
장으로
통과
놀러
반출입
사람에게
사람한테
곳곳에
체육
얼마에
가져다드리면
환자로
않습니다만
2층도
단수
단품
에클ᄅ
이상하게
관람권을
달만
원피스만
원피스랑
당뇨
모르시는
초보
둘러보다가
특허
김다
간접
기다릴까요
시즌으로
기재하시면
맛있을
입고되어
길지
심지어
홈페이지와
없었어요
신상품입니다
##하셨기
찾으시는지
##치료를
쉬는
차량은
마지막에
뜻인지
넘을
넘었는데
연결된
제작이
전송하였습니다
신용카드는
지정석
벽면
정책상
광고하는
정상적으로
라인으로
##칙에
군밤
##고리를
의료진
불가능한가요
평소에
##ᆻ었는데요
선물용이라
과정에서
신어보고
임부복도
시스템은
안심하고
비빔냉면
직장에서
견적
여섯시까지입니다
한가한
코스요리
고소한
이달의
전신거울이
유명하다고
주행모드로
캐릭터가
콘셉트
스크래치
상단에서부터
탄소포인트
부여된
쿠팡에서
심각한
셰프
목폴라
에클레
2회
5월
9번
쪄
##ᅮ시
##메이
##네이
##퀴
이재민
가사
요청드려도
##ᅡ워요
##주려고
안되는데
하긴
##렵
서있는
신림
##제랑
##실의
기운
##나무
말입니다
입퇴
확인하여
없겠죠
중증
매년
다하겠습니다
신청에는
신청인이
모성
물건도
추상
맞다
수선하러
원격
접수해도
##우시면
주문번호
해당되나요
배부
배터리
##소리로
많지는
작성하라고
소식
약국이라고
서비스해
입었는데
바퀴
로봇이잖아
##하겠네요
사용하려고
민원인분
편하실
적용하면
반에
얼마가
시작하도록
그런가요
조회하고
쇼핑하신
불가입니다
가지가
달은
모르고
##셨습니까
증정됩니다
색상으로는
찾았는데
찾아봐도
상담받으면
있었는데요
설명되어
할부를
검사실
영업신고
큰소리로
타이트
허브
친구들
기준입니다
기준지는
기준지가
제공해드리고
보험회
선택하는
##ᅡ라테
티셔츠에
##형은
그래픽
올라가야
올라가셔야
항정
기능으로
심한
심사
어젯
직원에게만
30분에
일정한
당첨자
당첨된
당첨자에게
환불해
수도권
갖는
남자화장
답변이
납부하시면
납부하셔야
12개월
책이
장소에
맨투맨이
24개월
알려주시겠습니까
치즈케이크
기록하여
상의가
가까이에서
난임
월요일은
속옷도
받으셨다면
바우처는
여쭤봐도
1년간
편의점이
시스템을
재산세
영업시간을
충분하게
##ᅢᆨ스치노
읽고
파스타와
통지해
봉툿
어렵다는
신메뉴로
세일가가
올라오
스캔해
지연되어
엽산
양수인이
철분
접속해
주얼리
와보는데
화물차
떨어트려
한의원
실행하겠습니다
벌과금
부드럽고
큐레이터
신학기
무관합니다
중소기업
배탈이
견적서
신림역
s로
댁
땀
럭
##ᆺ날
##이너
##이벤
##니니
##하하
주스가
##술이
##었던
안구
거에
젝시
##행시
옛날
했었는데
피크
동그라
안내와
기기는
##맹
입사
고객분들이
구매만
신청인의
모퉁
같으면
이벤트네요
맞으시면
원인이
무게
##우로
##까지의
해당하시는
배고
배터
분기
준공
작성에
신청서로
참석
앞쪽으로
메뉴만
##던데요
민속
좋지
등록부
등록번호
입어보려는데
금식
적용되십니다
방문하셔야
유물은
참여했는데
가격의
##후견
전달했습니다
전달하였습니다
처리할
처리되었습니다
열시에
나오실
정도입니다
파니니
날에
청력
착용하시다가
본사에
##시간에
품질
예정된
##통을
찾아주시길
도움드리도록
단체복은
구역을
가져오긴
법규
잠옷으로
한복은
보호시설
물어보시면
정산소에서
저쪽입니다
밑으로
환자분들이
상관없나요
항목만
어린이는
보니깐
000원이지만
##병원
허리만
포스터가
샌드위치를
들어왔어요
접종은
생일인
푸딩
생활지원금
네이버로
첨부가
보건소가
운전면허증과
정신없
묻는
이주비
주민센터에
할인가가
세대주와
독립
지불해
축제
짐은
칼국수
등록증과
365
줘야
분류되어
승강
##스러운데
상속인
해드려서
뽀로로가
기초생활수급
저소득층에
에어팟을
취향에
표지판이
겪는
수월하게
숙박비
널디
명찰을
트러플
거위털
미숙아
입퇴원
어젯밤
동그라미
6층에
79
b형
퐁
##차ᄅ
##흥
##갸
##켓이
##시어
##스티
가시는
가셔도
##가운
안타
##리케이
해드릴
기기
##금으로
샀었는데
##할인
고객분들의
할인될까요
구매하셔서
모셔
같고요
##재의
건에
들으러
내셔야
대기하라고
진행하시면
발급의
주문하러
감사했습니다
두시부터
주차가
불판
자진
뭐부터
메뉴와
종목
편이라서
##있으면
방문했을
유류
유출
##경영
가이드와
실은
운영합니다
담당자와
참고해서
사진도
할인이랑
김원
기다리라고
##이라고요
##옷을
적립은
타코
입력을
15일에
핸드메이
선택하신
팔려
면담
가까워
##ᅡ라는
##줄에
체험관이
체험관은
걸립니다
계좌번호를
발생하며
좋겠는데요
신발도
가져오시면
상태로
인증해
재발급에
3일이
가입이
다녀오신
책자
나누
나뉘
케이크가
생겼습니다
일주일간
법인차ᄅ
용어입니다
노란색은
생활지원
자격으로
호명되는
투어
의미입니다
위임장과
##먹고
골라주시면
안전하게
꽤나
하시나요
반품하고
휴무입니다
##켓을
휴게실에
충분한
구매해야겠어요
에어컨을
##약국은
가기에는
수제로
문진표를
통해서도
대량으로
대박이야
스토어
실비보험
쌀쌀해져
빌려주
사진촬영이
피클은
매치할
반바지를
증명사진도
골목식당
사유서만
후문으로
뮤지엄
이륜차
##믹과
늘릴
굳이
항정살
365일
안타까
##리케이션
법인차량
99
뿐
타ᄅ
##시한
주던데
##수와
가동
지워
시장
##ᅡ아
안이
되어서
거까지
하거나
오트
보풀
예약하시면
##구청
없도록
중반
매니
매수
한방
한자로
몰ᄅ
##터를
##자인데
상품별
재질로
매장이랑
추워서
맞출
왔던
후불
제품보다
이용하기
내리는
내과는
내외로
수선이랑
수선비용은
접수하였습니다
대기번호를
##솔이
세일하지
분들은
미지
빗
경우에도
배송하려고
해주고
해주네
스터
##이라니
10주년
출연
판매한다고
가능하시나
외래
제출하는
##모토
드시기
드셨다니
전달이
##콜
가이드북을
색은
최수
열일곱
불가하다는
카페에서는
사진입니다
둘러봐야겠네요
마음이
친필
저번이랑
김성
손질
손가락
보내시는
보내주실
혜택에는
찍은
맛있나요
다양해서
거울에
핸드백
레인
촬영도
잔액
호출하는
손님을
발생했을
끝났고
마감됩니다
챙기
충치가
물품의
밑단을
제한되는
재미있네요
다녀오세요
상이하여
막히
라테에
서명란이
로비에서
맛집
감면은
합리
합스부르크
미술전
명의로
신용카드를
진료받으신
##샌드위치
눌러주십시오
탄산수는
속옷은
가족관계증명서를
슈크림
서빙이
병원에선
1년에
바람막이도
바코드가
나라사랑
취급하지
예술의
지불하셔야
란이
부족한
대기번호는
##냐고
구경하려고
소파에
비키니는
##자에게는
똑똑한
갈아입고
딸기재
데이비드
통장사본이
표기하시면
사인회가
요구르트
마라탕
연계된
김수현
되어있지
서랍에
밤에만
산책로
배송처리해
산부인과는
균일
어젯밤부터
퐁듀
몰라요
벤치
썩
아름
쫀
##라아
##ᆻ거나
##ᆻ구나
##쾌
##썸
##니깐
이하는
이석
주인분
##수대
갓
가는데
갔어요
가보시면
가라아
징
되실
하단
질문은
여자가
서야
신라면
마사지
안내방
기종
주변에서
전인
사기
여기밖에
넷
##표에
모자에
같거든요
재외
##쟁
알지
와주세요
후에는
들리지
이용하려면
이용하려는데
진행했던
진행한다던데
발급일
재고에
주시기를
개명하
분만
두드러
그전에
미수
주차표
사이즈보다
위치정보를
잦
때에
시간과
사용되는
##셔서요
문의하고
체형
##액의
환전
##력은
##등급
단무
##미안
식초
관람료는
불가하십니다
달콤한
달갸
회전
남았는데
금액과
착용은
주민은
휴관
3층입니다
나가도
##량은
작품들을
##노인
처음이네요
브래지어
사업계획
넣어서
데미안
입력하면
보험처리
티셔츠의
잔과
포함되는
매장이에요
심해
발권기가
있을만한
좋아해요
신발의
여름휴가
블라우스도
온라인으로도
채소와
지참하시고
걸렸습니다
3개월로
실례지만
12시
크림치즈
11층
고르곤
관리실에
담아드리겠습니다
등본은
새우튀김
사이드로
도착하게
전문점이
개명신청
창고에서
4인용
광고를
##놨는데
지불해야
교수님께
근로자
아노락이
보관함은
배우가
미만의
실제로
손상이
도수치료를
놀라워요
패턴이
##프레소
숫자가
atm기가
고소하고
얻을
글씨를
묶어
재능기부
밴딩
소화기내과
크루
도보로
에클레어
매니저
균일가
안내방송
##겁네요
##톤
##쩍
##시모토
##수도
갈까요
가시려면
##게장
##서나
요시모토
전광
##아호
##나물
##딪
없다고요
부딪
매콤한
닿
결제될까요
결제하려고요
할인의
한산
세분
위층에
후식
무난
접수하였으며
들어보
차질이
발급되나요
발급하러
배기
개관
계정
메가
찾으신
000원당
때가
의해
선납
됐고
코스는
분실했어요
사용해야
추가하셔서
알려주셔야
연휴
양쪽
무료인
카드기에
제공이
##ᆯ린
침을
##택스에서
직원한테
##밀리
식권을
점퍼가
열시로
30명이
쇼핑하는
획
담당자의
날에는
카페인
계산대로
이름이랑
착용하시고
음료와
준비해오신
##했는지
찾아주시겠어요
보내시고
보관되어
여권도
그렇지
평이
어제까지
구경만
왔는지
백반
즐겨
일정에
뽑아주십시오
꼼
높게
내부에서는
재발급을
정산은
구입한
앱에서도
재미있는
입장권으로
아니라서요
빼주세요
고르실
라테는
에스프레소
저한테는
친절한
출생신고하러
정리를
올리시면
자격을
싸인
피자입니다
물리치료실까지
꽃게
##플레
10월부터
영화표
임신확인
쿠키와
닫혀
당첨됐어요
##빵을
선호하십니다
그곳으로
기념품을
노인문화
범위가
배너가
제3전시실
대단하네요
갈아입을
빛나는
필라테스
중요성
얼굴이
수거하여
러닝
마라톤
이가탄
손목이
만석입니다
세벌까지
버릴
부를까요
칼로리가
인공눈물
멈추
팔리나요
등받이
탄소포인트제
스터디
9층에
몽
##맥
##3으로
##94
##보는
이중
##시겠습니까
##고기는
요청하실
##로이
##로바
##장이라고
##려나
##행물
안내되나요
안내실에
전염
말로는
##정류
물ᄎ
##라임
할인까지
신청하죠
##상황
재생
이벤트인
발토
주시면서
접수할게요
그만
일어나
경우를
서비스인가요
##동을
해주셨습니다
아니었어요
우럭
얼마를
코듀
등록하고
등록하려면
입어보기
방문하는
제출하신
칩스
여기서부터
체크를
가져다드립니다
##코올
현금밖에
##개월이
시작하여
그런가
패밀리
관람하러
##너에
신고증
내용으로
청라임
금액대
있으면은
끓
적어주신
그립
가능하도록
예정이며
김재
체크해도
연락드릴
상품이에요
보관소는
재킷들은
허스트
친구들이랑
##사항은
되었는데
##밥으로
내역은
기재하면
촬영실은
검은색이
진단서도
매장이면
삼계
##검사를
수수료에
있을지
##션에
##십쇼
셔츠의
정장이
한복도
보호자로
현대카드는
현대미술
이전을
시설은
수요일로
향수
향신
향후
보조금은
생일선
맞춤정
비싼가요
전송됩니다
한국어
속옷을
부담스러운데
4층까지
루브르
입금해
무인수납기에서
300m
1인분과
용도에
닭불
모르겠어서
넥타이를
늘어
##벨을
정부에서
게시물을
그쪽에서
진열돼있는
카메라가
지하주차장
동네에
##갈비
마쳤습니다
재질의
낫겠네요
비슷해서
편의점에서
0234
집중력
사회복지과에서
반바지가
짝수
놓여있는
도토리
구매금액이
나누어져
##꽂이에
유튜브
한양대학교
카드리더기에
젝시믹스
닿는
획득
코듀로이
700원
껴
암
##춘
##ᅧᆷ
##드라고
##잠
##찜
##싹
##시라면
##수단이
가다
가만
요청드리겠습니다
수용
제니
보시려면
동료
안내로
할로
전공
##나네요
말해야
드리니
없음을
한약
세시까지
알코올
피팅룸뿐만
가능합니다만
것들은
##000
차트를
##졌습니다
주문대에서
비행
증도
바빠
등록해서
사용하지
추가했는데
10대
입어보려
연관
양도를
##있으며
공사로
먹겠습니다
유상으로
없습니다만
가격인
치석
단골
신고인
아까부터
증정품
##조사
간지
간만
이러면
가족을
국립
국물이
소요시간
나염
진열대에
데리
층별
강화
촬영할
잔에
##양말
체험을
호출합니다
진단서의
떨어질
설치미술
카디건도
당첨되신
스트리
태어나
멤버십을
시술에
증명해야
대해서도
관계를
파란색이
xl로
들어왔나요
우리은행
다행이에요
학생들
구두가
떼서
##폐기
쓸게요
셀프바
유니폼을
풀린
텀블러가
베이지색으로
1년까지
이빨
티켓팅해주세요
쿠키가
활용하실
##이었던
목티를
카드사별
22일
구매해야겠네요
업로드하면
그곳은
귀걸이랑
##귀국
접수창구로
170
영주귀국
제2전시실
좁은데
지도에
신경외과
팔찌를
소요됨을
웰던
플레이팅
단정하고
도시락
수납내역을
##둘게요
손님분들께서는
가리키
뻔했네요
케첩이
셋업
하객룩
맞으신가요
보티첼리전
고르곤조
87
a07
뛰
브레
##마의
##ᆫ데
##나ᄋ
##ᆸ에서
##틀리
##11
이문
이현
가주시길
안된다고
저처럼
오라던데
해보실
보던
##거리
피넛
동선
기호
##아토
##아이가
드리려고
사인이
입더
인명용
이브닝
같더라고요
경차
주문해서
##명록
방명록
일로
메디
찾으시면
나비
사이즈별
추천드리고
배송되나요
##동으로
##동부
못해요
##필이
화보
그러니까
아니어도
생맥
유사한
사람보다
처리하도록
언니
화장이
쿠폰도
달에는
보이질
오른편
카페로
계산을
착용했던
로봇으로
##됐다고
찾아봤는데
상담해
불러줘요
사항에는
사업에
보관소에
파악하기
수선실도
지역에서
궁금해서요
가까우
급해서요
진단서가
생각이
기계는
홈페이지에서는
발권이
것이라면
카디건의
가져오라고
대신에
신상품을
간단하네요
##팬
사은품은
전체를
레깅스가
대여는
대여할
글자를
60일
소매에
소매길이
점심시간에도
나눠져
똑같아
시원하게
대형폐기
##스러워요
에그모닝
겨울옷은
선호하는
##사여
오프닝
그곳에서
##벨벳
재료를
레드벨벳
미성년자는
슬레
훼손된
걱정하지
소스와
폭이
맞추어
280
베네
흑청
싫어
특이사항
초대전
표기해
마요네
겪게
틀어
기회에
오더가
결제수단을
문명전
숙녀복
스테디
나누어서
할로윈
5년
a로
##타르트
##ᆻ다니
##ᆻ더라
##ᆺ배
##썹
##이었는데
##서도
##기까지
##지입니다
안돼서
안마의
##하시던
가능해
고생
핏을
안내드린
전반
말이죠
입으면
##정입니다
부산
부서를
##건이
신청자에
알아야
##러멜
받기로
배정
그분
메밀
비만
##랩
##된다
##받으려면
입장료는
잘해
코드로
사용되었습니다
판다고
민원인이
알려주신
생명
수납하러
##키즈
방문인데
노키즈
유동
뽑아서
##겠군요
##경숙
완성
완료까지
점은
언제가
언제죠
신고해
테이블을
줄무늬
본거
음료수를
특수
신기하긴
그런데요
보내십시오
##인이란
검사해
제품이기
허리는
구비하고
구매하면은
레규
식당입니다
치료해
템플리
캐러멜
##휴가를
가게에
좋겠고
마감된
거주하고
물어보는
비싸다
비싸서요
서명도
많은데요
##기로는
화요일로
55사이즈로
싸네요
지정해서
대화하다니
2주가
##손으로
아웃백
그림에
구제는
초록색이
퇴식
에그타르트
제거를
사망신고
흡연실이
##약국을
##꼼
사람들한테
수신료는
김민식
씹
조합이
바닐ᄅ
숫자로
원칙으로
가운데에
호피무늬가
경험이
낙지
이어폰을
사후관리
쇼핑되시길
차상위계층
헤어배
##으라는데
챗봇
사케동
맺은
놀라워라
팝업스토어
수면바지는
꼼꼼
가다실
노키즈존
레귤러
7시
93
900원입니다
ok
뷰
사요
크레
##ᆷ으로
정각
주니
가맹
있겠어요
##가에서
##고시
시도
되니
오르
해봐야
고속
예약만
사과의
##건축
어디다가
신청일
발매
##분과
##번째
적으라는
##대기
수선할게요
원본
진료의
차콜
##우편
진행하던
개나
나을까요
위치부터
자기
해주십시오
창업
로봇이란
게르
사용법
10번
연금
##있고
병으로
방문은
방문할
방문했
방문하시기
유화
사람인
직원에
엘
교무
봤을
관람은
쿠폰북
도와드리기
신고해야
커팅
보이긴
##사이즈랑
입구와
음료수는
대상자가
##조에
##불이
김하
찾아주실래요
복지카드
기다리라는
있었으면
##ᅳ라서
변호
혜택으로
여성분들이
저번에도
용지에
가져왔거든요
업무처리
예매할게요
식당으로
않았어요
왔나
기념행
인원수를
수영복이랑
까만
약국에서만
고르면
고르기가
원래는
넘게
샌드위치로
부모의
어쩜
전기료
명의가
##상품이
첨부해
대표자
운동복은
할머니가
관람객에게
##농장
구조구급
모델이
봉투에
농업경영
권장해
탕수육이
공지된
브로치
대박이네
우편물에
흉부
확진자
도와주나요
돋보기안경
최고의
쌀쌀해진
시끄러워요
갈빗살
채워야
a코스로
룩으로
가위로
긁으면
윤지
어려움이
받으시려면
아니었나요
기운이
고르곤졸라
게르니
42
57
멍
잭
훈
하우스
##0년
##ᆽ꽃
##1년
##니아
이기
이직
주에도
주제를
가라
가주셔야
지지
지도가
##기관
수표
안되었습니다
저게
거부
주시지
제고
아포
오셔도
했다고
##거려요
피자로
안내부터
기술이
##반짝
##구이는
대짜리
사다
결제까지
할인한다는
신청해서
신청해요
몸에
재정
매장인가
추진
윙
싶으신
접수하지
발급만
분식
작성하려는데
방영
소스를
소고기가
불꽃
바가
지원받는
돼있는데
##세트를
샌
추가되나요
연구
##처로
공포
유리
반환
##못이
치고
얼마든지
나와있네요
아이도
신고의
신고하려고
행사장
초조
금액에서
착용할
키를
벚꽃
쪽이죠
왼편
도움은
보관용으로
여성용으로
들어올
패딩으로
용지
중이어서
면사무소에서
검색해서
학년
응대가
회원이에요
기능에
돌아오
발권하고
캔
작가님이
월까지
기입하셔야
이후에는
블라우스와
가져올
수영장
뽑아도
부서에
높아서
납세
납입
요즘에
가족관계등록부
위임장이
샌드위치가
와이어
전시회장에서
24시
60세
버튼이
보건소는
점심시간에
진료받기
청소년증을
##채원
안경이
옷걸이에는
##기간이
거기까지
도장과
장갑은
##봉을
구청에서는
기장으로
목걸이가
쇼핑몰에
23일에
##약국입니다
방송을
우산은
평소보다
머리끈
아디다스에서
핫팬
게시판에
1회에
대단한
리필은
##ᅡ월
고지서를
부부가
스탬프를
음식물류
명확하게
정문에서
아우터류를
화덕이
잇몸이
애플리케이션
a코스
비영리법인
푸드코트가
불량품
진짜예요
마르게리타
모네의
반짝반짝
깁스를
킥보드
매실차
생생정보
비행기
변호사
훈련
1분
5인
8층으로
9층
hn
##바위
##틴
##싸
##99
##이안
##요리
이는
이마가
##스널
주유
가셨습니다
있길래
시기
시대
시내
##ᅩᆼ초
##ᅡᆷᄈ
되셨
저작
제안
오다가
질문입니다
해장국
##검이
약에
##의류는
##금도
입영
물량
물방울
붉
##건강
##으셨다면
다입니다
현행
신청하려는
싶으니까
이용료
적습니다
적으실
내주시면
내과로
내복을
내놓는
부탁드리고
##저것
무대의
진행하실
발급되었습니다
주문으로
배려
두근
작성하시다가
신청서요
메우
비를
소각
##마자
배송정보
##받아야
준비하실
의사와
의사의
직불
번호표와
메뉴의
##출국
아니까
웃
남아서
민증을
판결
민원과
민원서비스
10개월까지
연못
생략
종전
명당
##킴이
방문하시는
##계를
반사경
사람의
제출하지
칠리
치과에
어디에다가
기다려주셔야
환자는
처리하는데
시작해요
설사
가이드도
단백
완료입니다
최지
30일이
화장실의
신고하려면
회가
날입니다
계산대가
내용인지
선물하려는데
전화는
괜찮으시다면
쓰기
예정이라
##술해
휴지를
집게
김밥
##했고
찾아주신
복지정책
3층을
매장에서도
지하수
업장
여성분의
이동하였습니다
방법입니다
적립할
적립하고
갈증이
##중입니다
##으려나
##종료
토스트
선택하라고
잃어버렸던
강동
상품으로는
촬영실
치료가
진료비와
지급합니다
지급된
체험용
호출하도록
학습
잡혀
구경하시면
종료합니다
폐렴
담당자는
공간을
증빙자료
전화번호로
확답
수영복이
##하셨으니
농구
아동수당
프리인가요
나이대
이것저것
5분입니다
처방전은
찍어주시면
이내입니다
사은품이
한정수량
선생님은
법인의
상황이라
관리과에서
노란색으로
언제까지인가요
화요일입니다
링클
첨부하지
구체적
이유를
스티커로
소진될
사인도
얼음이
검정고시
자료와
누르십시오
##김치
발송됩니다
무스탕이
버려주시겠어요
원두도
그림은
협찬
퍼스널
환경이
응급실로
##봉투
런치세트
##이었으면
하얀색이
독거
보라색도
국내에서
부족으로
만들어진
의상을
부모님의
5번입니다
단위는
비키니를
승선
배달의
공무원이
모양을
어렵고
침수
리모델링으로
##진료실은
송장
신분증명서가
니트라서
혈변
머신에서
휴대전화를
022
좁아서
이외의
거짓으로
하였습니다
차액만
견본을
매출액
터치
예약시간보다
규격에
##쌈밥
유자차
불법주차
스마트폰을
유통업
프로그램을
발레복도
든든
위험이
정밀검사
깊은
특가로
카테고리에
조개구이
숨겨
예금주
기반하여
캐시미어
홍소육이
삽입해
놀랍다
id를
프렌치
보험회사에
봉툿값은
넷째
물총을
가만히
바닐라라테
고속도로
물방울무늬
판결문
7분
kb
##ᅢ요
##땅
##이날
정성
##합니까
주기는
##수수
지가
##면허증
어버
숯
되시고
##장소
제기
오려고요
질문하셨습니다
보심을
고파서
피후견
마세요
마셔도
도구는
구만
전의
전액
상병
인주
##였는데
##였죠
부득이
##건가요
##으세요
네시로
중자
결제하셔서
결제하셨기
신청인지
신청하셨습니다
상품이랑
같다면
##치면
건당
발자
피팅룸만
후식으로
이용하시고
적정
것들을
수선하시면
원단이
관동
필요시
대기장
대기하실
차등
##웅
재고부터
##명에
많으면
많네
그곳이
방침
##관련
경우만
등재
더불
배송지와
##권자
증인
의원
의약
##랑이
시간보다
남자는
좋다고
다음과
사용하셔도
알려주시기
연기가
연필로
양은
시점
##있을
장려
무료이고
저기는
먹기에
외식
사람마다
##경은
가격표는
며치
설사가
2층이
2층의
단맛이
이상만
식중
신분증도
달이
주신다면
뒤인
모르니
행사도
사진전
괜찮고
##셨기
친양
친권자
온도가
나가면서
손수
##안전
기다린
포장이
택배의
##노동부
혜택과
불편해요
국적
컬러와
주민등록표
증상으로는
##사항과
중이셔서
교환하고
자동문
비치해
궁금하네
품절인가요
잃어버려서요
잃어버렸거든요
강하지
레어
무인양
잡화를
손님들
할인되는지
심해요
발생하고
##존으로
환불이나
걸려있습니다
태어난
사실증명
내부에도
눈에는
만들면
양식만
골라야
디자인으로는
찢
향하는
요청사항에
세트로도
##시까지입니다
대리인으로
생일이
평일에만
제작해서
화면에서
맛에
올리신
등본과
인스타에
시켜서
커플용
세대원
##상품권을
점심시간이
에어랩
면제입니다
바꿔야
서빙을
스커트가
조끼와
치워주시겠어요
##기간은
##베르
격식
창고입니다
임신확인서
퍼플
그릇을
정책에
롯데카드로
정형외과에서
휴게실이
컵으로
카드사에서
이삿
사라져
구성원
가구에게
늘려주
레드와
등록증은
망치
스태프
##ᆻ었나요
클래
실수령
44부터
마릿
갈아입는
목록을
목록은
탑텐
루프탑에
스무디입니다
떠돌이
익일
예쁘긴
아이템은
완전히
깨끄
먹어볼게요
케어
##되셨으니
고용노동부
가위바위
요새는
바쁜
동거하고
청재킷
닥터
다이슨
뚜ᄁ
어금니가
카멜색
늦는다고
##스티유
노인문화센터
김재현
아포스티유
저작권
독거노인
어버이날
부득이하게
더불어
식중독
친양자
가위바위보
2시
700원입니다
파리
##샹
##ᅯᆯ
##ᆻ든
##ᆱ은
이랜드
##해가
가르
##고라
##게트
지체
지지고
지퍼가
지혈
어째
안마
##리개
##하시겠습니까
해봐
조명
고시
고장이
마티
돌리
약하게
##용은
안내도를
##아상
도와줘
도와주시나요
도와주시는
대창
확인되면
확인되셨으니
물에
##라이
##라서요
다세
할인되고
구매했어요
세트랑
같으니
재봉
##재료
알다니
##증으로
##분께서
피팅룸인
피팅룸이나
작은데
들은
부탁합니다
수선으로
어때요
진료만
접수하는데
접수되었으며
주문서
주문서를
해당되지
세일해
않음을
작성대
일하는
##ᅡ오르는
배송신청
준비생을
증명하
선크림을
##피티
걸을
사료
남기
코피가
사용하셔야
추가되어
민원이나
10층
입어보세요
생강
수납하시면
##내고
성명을
판매업소
노리개
복무
##코스는
처리된
단가
##봐주시면
조회됩니다
완료돼
관람한
관람하시면
불가하니
불가함을
원피스형
날은
남았는지
입구부터
로봇의
##조합
집을
벌만
##했나
발급받으려면
발급받으셔야
찾아줄
나가려면
알아본
##혀주시면
할부도
지하에서
과가
찍혀
여권용
리움
불가능하며
영업일
기간이라고
큰일
##사항입니다
수선실까지
예약해둔
산악
구비하지
예상보다
셔틀
블랙ᄑ
학점
가져가셔야
매장이며
삼행시
오래돼서
항생
회원은
길에서
지갑은
캐머
월별
없으십니까
사실입니다
환자분이
시술의
답변으로는
몰랐네요
납부가
다녀올
수량만큼
경우엔
시키지
향해
대여소는
대여소가
우리나라
드레스도
페이스북
샤갈
쓰여있네요
찢어졌어요
소지자
20분입니다
55로
링도
소견서의
##샵
태그와
여행자
케이크를
충전소
은은
얘기하는
신속한
치워주세요
세대주와의
개명허가
취업한
학교의
환경보
타임은
넉넉히
흡수
참가비
닫고
도서관에서
교수님의
찾아가실
발급받았는데요
채널에
가구의
의사선생님과
44사이즈
고양이가
못했으니
부착된
캐주얼한
별관으로
##스럽게
인상파
추워지
혼잡합니다
명확한
공식몰
부위를
룰렛을
꺾으면
전입신고를
건축물대장
건축물대장을
지켜보고
수령하면
횟수에
걷다
자판기
##팩을
흔들
예진표
주행모드를
닫았던데
니트류는
어려움을
식품위생과에서
##장애인
